<pad>	0
<unk>	0
<bos>	0
<eos>	0
<0x00>	0
<0x01>	0
<0x02>	0
<0x03>	0
<0x04>	0
<0x05>	0
<0x06>	0
<0x07>	0
<0x08>	0
<0x09>	0
<0x0A>	0
<0x0B>	0
<0x0C>	0
<0x0D>	0
<0x0E>	0
<0x0F>	0
<0x10>	0
<0x11>	0
<0x12>	0
<0x13>	0
<0x14>	0
<0x15>	0
<0x16>	0
<0x17>	0
<0x18>	0
<0x19>	0
<0x1A>	0
<0x1B>	0
<0x1C>	0
<0x1D>	0
<0x1E>	0
<0x1F>	0
<0x20>	0
<0x21>	0
<0x22>	0
<0x23>	0
<0x24>	0
<0x25>	0
<0x26>	0
<0x27>	0
<0x28>	0
<0x29>	0
<0x2A>	0
<0x2B>	0
<0x2C>	0
<0x2D>	0
<0x2E>	0
<0x2F>	0
<0x30>	0
<0x31>	0
<0x32>	0
<0x33>	0
<0x34>	0
<0x35>	0
<0x36>	0
<0x37>	0
<0x38>	0
<0x39>	0
<0x3A>	0
<0x3B>	0
<0x3C>	0
<0x3D>	0
<0x3E>	0
<0x3F>	0
<0x40>	0
<0x41>	0
<0x42>	0
<0x43>	0
<0x44>	0
<0x45>	0
<0x46>	0
<0x47>	0
<0x48>	0
<0x49>	0
<0x4A>	0
<0x4B>	0
<0x4C>	0
<0x4D>	0
<0x4E>	0
<0x4F>	0
<0x50>	0
<0x51>	0
<0x52>	0
<0x53>	0
<0x54>	0
<0x55>	0
<0x56>	0
<0x57>	0
<0x58>	0
<0x59>	0
<0x5A>	0
<0x5B>	0
<0x5C>	0
<0x5D>	0
<0x5E>	0
<0x5F>	0
<0x60>	0
<0x61>	0
<0x62>	0
<0x63>	0
<0x64>	0
<0x65>	0
<0x66>	0
<0x67>	0
<0x68>	0
<0x69>	0
<0x6A>	0
<0x6B>	0
<0x6C>	0
<0x6D>	0
<0x6E>	0
<0x6F>	0
<0x70>	0
<0x71>	0
<0x72>	0
<0x73>	0
<0x74>	0
<0x75>	0
<0x76>	0
<0x77>	0
<0x78>	0
<0x79>	0
<0x7A>	0
<0x7B>	0
<0x7C>	0
<0x7D>	0
<0x7E>	0
<0x7F>	0
<0x80>	0
<0x81>	0
<0x82>	0
<0x83>	0
<0x84>	0
<0x85>	0
<0x86>	0
<0x87>	0
<0x88>	0
<0x89>	0
<0x8A>	0
<0x8B>	0
<0x8C>	0
<0x8D>	0
<0x8E>	0
<0x8F>	0
<0x90>	0
<0x91>	0
<0x92>	0
<0x93>	0
<0x94>	0
<0x95>	0
<0x96>	0
<0x97>	0
<0x98>	0
<0x99>	0
<0x9A>	0
<0x9B>	0
<0x9C>	0
<0x9D>	0
<0x9E>	0
<0x9F>	0
<0xA0>	0
<0xA1>	0
<0xA2>	0
<0xA3>	0
<0xA4>	0
<0xA5>	0
<0xA6>	0
<0xA7>	0
<0xA8>	0
<0xA9>	0
<0xAA>	0
<0xAB>	0
<0xAC>	0
<0xAD>	0
<0xAE>	0
<0xAF>	0
<0xB0>	0
<0xB1>	0
<0xB2>	0
<0xB3>	0
<0xB4>	0
<0xB5>	0
<0xB6>	0
<0xB7>	0
<0xB8>	0
<0xB9>	0
<0xBA>	0
<0xBB>	0
<0xBC>	0
<0xBD>	0
<0xBE>	0
<0xBF>	0
<0xC0>	0
<0xC1>	0
<0xC2>	0
<0xC3>	0
<0xC4>	0
<0xC5>	0
<0xC6>	0
<0xC7>	0
<0xC8>	0
<0xC9>	0
<0xCA>	0
<0xCB>	0
<0xCC>	0
<0xCD>	0
<0xCE>	0
<0xCF>	0
<0xD0>	0
<0xD1>	0
<0xD2>	0
<0xD3>	0
<0xD4>	0
<0xD5>	0
<0xD6>	0
<0xD7>	0
<0xD8>	0
<0xD9>	0
<0xDA>	0
<0xDB>	0
<0xDC>	0
<0xDD>	0
<0xDE>	0
<0xDF>	0
<0xE0>	0
<0xE1>	0
<0xE2>	0
<0xE3>	0
<0xE4>	0
<0xE5>	0
<0xE6>	0
<0xE7>	0
<0xE8>	0
<0xE9>	0
<0xEA>	0
<0xEB>	0
<0xEC>	0
<0xED>	0
<0xEE>	0
<0xEF>	0
<0xF0>	0
<0xF1>	0
<0xF2>	0
<0xF3>	0
<0xF4>	0
<0xF5>	0
<0xF6>	0
<0xF7>	0
<0xF8>	0
<0xF9>	0
<0xFA>	0
<0xFB>	0
<0xFC>	0
<0xFD>	0
<0xFE>	0
<0xFF>	0
▁t	-0
he	-1
▁a	-2
in	-3
▁the	-4
re	-5
er	-6
on	-7
▁s	-8
▁o	-9
▁w	-10
▁f	-11
ed	-12
es	-13
nd	-14
or	-15
▁,	-16
▁c	-17
is	-18
at	-19
▁b	-20
al	-21
▁of	-22
it	-23
an	-24
▁p	-25
ar	-26
▁m	-27
en	-28
▁.	-29
▁h	-30
▁in	-31
▁to	-32
as	-33
ing	-34
▁d	-35
▁and	-36
ro	-37
▁T	-38
ic	-39
le	-40
▁S	-41
ou	-42
ion	-43
st	-44
▁The	-45
il	-46
▁th	-47
▁e	-48
ay	-49
▁re	-50
ol	-51
▁n	-52
ac	-53
▁E	-54
▁is	-55
ut	-56
▁A	-57
ent	-58
ec	-59
▁l	-60
▁g	-61
el	-62
am	-63
ow	-64
om	-65
et	-66
ad	-67
▁H	-68
▁"	-69
▁on	-70
▁he	-71
ep	-72
▁=	-73
▁C	-74
▁for	-75
▁I	-76
ir	-77
id	-78
▁P	-79
▁was	-80
ore	-81
▁M	-82
im	-83
ur	-84
ve	-85
ly	-86
▁an	-87
ot	-88
▁st	-89
▁$	-90
▁as	-91
▁B	-92
us	-93
ig	-94
os	-95
▁R	-96
ers	-97
▁that	-98
▁'	-99
ith	-100
ch	-101
▁be	-102
um	-103
ter	-104
▁we	-105
th	-106
op	-107
ver	-108
▁with	-109
un	-110
▁wh	-111
ce	-112
▁St	-113
ble	-114
▁fin	-115
▁al	-116
▁J	-117
ag	-118
ri	-119
ill	-120
▁at	-121
▁F	-122
ul	-123
ation	-124
ak	-125
▁D	-126
▁by	-127
ain	-128
and	-129
her	-130
ts	-131
▁his	-132
▁W	-133
ss	-134
▁it	-135
▁@	-136
fore	-137
▁There	-138
rom	-139
▁L	-140
ber	-141
em	-142
▁con	-143
our	-144
▁N	-145
ct	-146
▁are	-147
ord	-148
▁r	-149
▁G	-150
▁O	-151
xp	-152
ory	-153
iv	-154
▁has	-155
▁(	-156
ies	-157
▁final	-158
all	-159
by	-160
▁from	-161
od	-162
up	-163
ld	-164
ution	-165
▁Therefore	-166
cl	-167
ach	-168
▁man	-169
wer	-170
▁)	-171
tal	-172
est	-173
▁Pro	-174
ear	-175
▁com	-176
blem	-177
▁y	-178
igh	-179
▁ch	-180
olution	-181
osit	-182
▁ans	-183
if	-184
▁Step	-185
▁answer	-186
-@	-187
▁@-@	-188
step	-189
▁Problem	-190
▁Solution	-191
▁v	-192
ap	-193
red	-194
ost	-195
qu	-196
ave	-197
▁total	-198
▁sp	-199
ard	-200
▁In	-201
ks	-202
▁were	-203
▁pro	-204
ud	-205
▁pl	-206
gh	-207
▁she	-208
▁le	-209
▁ne	-210
▁sh	-211
ist	-212
▁Exp	-213
▁her	-214
art	-215
ong	-216
▁Ess	-217
ate	-218
▁Essay	-219
▁Exposit	-220
▁many	-221
▁Expository	-222
▁or	-223
▁k	-224
▁se	-225
nt	-226
oc	-227
ich	-228
▁per	-229
▁En	-230
▁had	-231
ess	-232
av	-233
▁tw	-234
▁He	-235
▁K	-236
ame	-237
ip	-238
▁+	-239
irst	-240
ort	-241
ie	-242
ive	-243
ack	-244
end	-245
cy	-246
▁num	-247
ell	-248
ant	-249
▁have	-250
▁tim	-251
se	-252
▁de	-253
ity	-254
▁each	-255
▁day	-256
▁tr	-257
ated	-258
oped	-259
ast	-260
ice	-261
ub	-262
▁number	-263
og	-264
▁which	-265
▁Rec	-266
▁year	-267
▁How	-268
fter	-269
und	-270
ish	-271
▁Record	-272
ge	-273
cycl	-274
ond	-275
▁first	-276
ment	-277
les	-278
▁Encycl	-279
▁Encycloped	-280
▁Encyclopedic	-281
ra	-282
ok	-283
ans	-284
ight	-285
ide	-286
res	-287
ree	-288
pp	-289
uch	-290
▁ro	-291
▁U	-292
ine	-293
ther	-294
▁not	-295
ust	-296
ia	-297
▁hour	-298
ake	-299
ount	-300
ally	-301
ary	-302
ue	-303
▁min	-304
▁cl	-305
▁will	-306
uc	-307
rit	-308
▁ad	-309
▁bo	-310
▁int	-311
▁two	-312
▁one	-313
▁more	-314
▁they	-315
ould	-316
▁bec	-317
▁If	-318
▁their	-319
▁Ch	-320
▁Th	-321
ass	-322
▁comp	-323
ect	-324
▁do	-325
ab	-326
age	-327
use	-328
▁wor	-329
ough	-330
▁than	-331
▁fe	-332
▁j	-333
▁all	-334
▁mon	-335
ome	-336
ater	-337
ff	-338
ound	-339
▁but	-340
ick	-341
▁how	-342
▁so	-343
▁cont	-344
ey	-345
so	-346
ous	-347
▁whe	-348
▁un	-349
▁cost	-350
ian	-351
▁*	-352
are	-353
▁app	-354
▁co	-355
oll	-356
ry	-357
▁V	-358
▁ex	-359
ure	-360
▁sc	-361
▁also	-362
hed	-363
▁ar	-364
ions	-365
▁minut	-366
ents	-367
▁wee	-368
▁can	-369
ial	-370
▁bu	-371
iz	-372
ons	-373
▁x	-374
ire	-375
▁sec	-376
▁after	-377
own	-378
old	-379
▁who	-380
ft	-381
ile	-382
▁go	-383
▁this	-384
ade	-385
out	-386
▁rec	-387
▁play	-388
▁its	-389
▁-	-390
orm	-391
ov	-392
ance	-393
▁there	-394
▁On	-395
ru	-396
act	-397
▁She	-398
▁time	-399
ical	-400
▁much	-401
ars	-402
▁out	-403
▁;	-404
hes	-405
uring	-406
▁minutes	-407
ugh	-408
▁hours	-409
▁up	-410
cc	-411
▁years	-412
wn	-413
▁–	-414
ign	-415
▁three	-416
ult	-417
▁us	-418
▁res	-419
▁second	-420
mer	-421
▁Al	-422
ark	-423
▁/	-424
ang	-425
▁me	-426
▁dis	-427
ren	-428
▁need	-429
▁ag	-430
▁off	-431
ings	-432
ik	-433
ens	-434
▁rem	-435
▁pe	-436
ets	-437
▁te	-438
ause	-439
▁am	-440
▁ear	-441
▁them	-442
very	-443
▁ab	-444
▁did	-445
▁pre	-446
▁fl	-447
▁mil	-448
akes	-449
▁been	-450
te	-451
land	-452
ite	-453
▁over	-454
we	-455
▁part	-456
ail	-457
▁would	-458
ence	-459
oin	-460
ild	-461
▁other	-462
ace	-463
▁ser	-464
clud	-465
▁week	-466
ted	-467
urn	-468
▁It	-469
▁Y	-470
port	-471
▁into	-472
▁him	-473
amp	-474
▁inc	-475
▁stud	-476
▁because	-477
▁then	-478
ces	-479
ations	-480
ood	-481
▁new	-482
▁bl	-483
ely	-484
als	-485
ction	-486
▁does	-487
ric	-488
▁des	-489
▁:	-490
way	-491
▁work	-492
▁So	-493
▁includ	-494
▁bot	-495
ors	-496
▁times	-497
▁att	-498
▁exp	-499
▁en	-500
ug	-501
ition	-502
ew	-503
▁find	-504
ates	-505
ove	-506
▁gro	-507
ards	-508
▁ev	-509
▁four	-510
per	-511
ath	-512
▁add	-513
▁dec	-514
air	-515
rough	-516
alf	-517
▁left	-518
ason	-519
one	-520
▁im	-521
man	-522
pl	-523
ames	-524
▁pr	-525
ase	-526
ose	-527
ople	-528
ased	-529
▁An	-530
▁Jo	-531
ix	-532
day	-533
ool	-534
ird	-535
▁made	-536
aw	-537
▁only	-538
▁days	-539
▁qu	-540
fe	-541
▁Mar	-542
▁col	-543
hn	-544
▁when	-545
▁kn	-546
ress	-547
ied	-548
ited	-549
▁people	-550
ys	-551
able	-552
▁during	-553
aid	-554
oun	-555
ious	-556
ats	-557
▁comm	-558
ning	-559
lic	-560
rib	-561
▁remain	-562
▁bet	-563
▁gr	-564
▁song	-565
▁Un	-566
▁month	-567
▁half	-568
▁miles	-569
form	-570
▁old	-571
ob	-572
▁game	-573
▁char	-574
rop	-575
ved	-576
ince	-577
ll	-578
ept	-579
▁cent	-580
ind	-581
▁long	-582
▁cons	-583
ought	-584
ank	-585
tern	-586
▁acc	-587
ib	-588
vel	-589
gan	-590
iss	-591
ween	-592
ock	-593
▁end	-594
other	-595
ilm	-596
▁After	-597
ages	-598
▁make	-599
oy	-600
ember	-601
▁car	-602
▁some	-603
ollow	-604
▁prod	-605
ants	-606
▁while	-607
▁season	-608
lect	-609
▁before	-610
pt	-611
▁record	-612
▁sup	-613
▁run	-614
▁every	-615
▁between	-616
▁again	-617
▁und	-618
▁sub	-619
ike	-620
ily	-621
▁bro	-622
ular	-623
▁used	-624
▁writ	-625
ends	-626
▁most	-627
ating	-628
▁John	-629
hen	-630
▁about	-631
orn	-632
ins	-633
▁pound	-634
els	-635
▁At	-636
▁through	-637
tle	-638
▁feet	-639
▁Le	-640
hip	-641
▁This	-642
chool	-643
▁mar	-644
▁both	-645
▁money	-646
any	-647
ered	-648
orth	-649
▁film	-650
▁Com	-651
.@	-652
▁@.@	-653
ational	-654
▁amount	-655
▁ret	-656
▁pay	-657
its	-658
oks	-659
ever	-660
▁rel	-661
▁under	-662
▁twice	-663
▁needs	-664
iel	-665
▁Wh	-666
▁Then	-667
▁Ar	-668
ished	-669
▁later	-670
ane	-671
▁ass	-672
▁reg	-673
ale	-674
▁students	-675
bum	-676
▁cre	-677
oss	-678
▁lar	-679
▁poin	-680
ann	-681
▁They	-682
▁rece	-683
oot	-684
▁back	-685
▁rele	-686
ict	-687
urch	-688
ron	-689
▁where	-690
▁act	-691
ral	-692
▁New	-693
outh	-694
▁follow	-695
cess	-696
▁get	-697
rent	-698
round	-699
▁take	-700
olog	-701
ision	-702
io	-703
ouse	-704
ph	-705
ived	-706
▁met	-707
▁album	-708
iew	-709
▁ent	-710
▁sold	-711
▁fri	-712
▁water	-713
ury	-714
▁rep	-715
ward	-716
▁buy	-717
▁score	-718
▁high	-719
iec	-720
ert	-721
,@	-722
▁@,@	-723
▁third	-724
▁ind	-725
▁mus	-726
▁team	-727
▁now	-728
▁class	-729
▁pounds	-730
ise	-731
ere	-732
▁same	-733
enn	-734
ier	-735
ues	-736
▁br	-737
▁tri	-738
ting	-739
ced	-740
ather	-741
▁dif	-742
igin	-743
▁sm	-744
▁school	-745
ower	-746
▁box	-747
ton	-748
▁em	-749
meric	-750
▁gre	-751
ether	-752
▁Car	-753
▁found	-754
aking	-755
▁rest	-756
▁being	-757
▁Sh	-758
▁ac	-759
▁sell	-760
pen	-761
▁call	-762
▁mov	-763
ines	-764
ield	-765
▁earn	-766
▁bought	-767
▁spec	-768
▁Fr	-769
▁ep	-770
ics	-771
▁such	-772
ual	-773
▁if	-774
▁Re	-775
▁Americ	-776
▁Z	-777
▁red	-778
ull	-779
ah	-780
xt	-781
▁dist	-782
▁form	-783
▁set	-784
▁disc	-785
ork	-786
▁cap	-787
▁pop	-788
ten	-789
ram	-790
▁equ	-791
▁loc	-792
▁sing	-793
ific	-794
▁took	-795
▁start	-796
▁doll	-797
▁perform	-798
▁pub	-799
ities	-800
▁As	-801
ener	-802
▁origin	-803
gs	-804
ised	-805
▁ord	-806
atch	-807
▁show	-808
▁fam	-809
▁sur	-810
ives	-811
▁read	-812
▁Brit	-813
ball	-814
▁Eng	-815
▁including	-816
ven	-817
▁what	-818
aj	-819
▁no	-820
▁books	-821
▁Her	-822
yl	-823
▁dep	-824
▁inv	-825
▁pres	-826
▁five	-827
▁takes	-828
▁last	-829
my	-830
▁epis	-831
▁Sc	-832
ink	-833
▁these	-834
▁against	-835
▁sy	-836
▁Br	-837
acks	-838
ided	-839
=$	-840
▁cr	-841
ober	-842
ures	-843
irect	-844
▁down	-845
ty	-846
ute	-847
ange	-848
▁episod	-849
ments	-850
erm	-851
ern	-852
▁became	-853
row	-854
▁For	-855
▁piec	-856
▁div	-857
▁pass	-858
▁spent	-859
▁series	-860
elf	-861
iam	-862
▁own	-863
▁ship	-864
bs	-865
▁well	-866
ared	-867
▁trans	-868
▁Each	-869
ife	-870
az	-871
pr	-872
▁comple	-873
led	-874
▁could	-875
ired	-876
▁child	-877
ful	-878
▁ph	-879
ides	-880
ined	-881
▁United	-882
eb	-883
erson	-884
▁ext	-885
▁ball	-886
▁six	-887
▁games	-888
▁small	-889
▁group	-890
▁bre	-891
ax	-892
ident	-893
▁His	-894
ained	-895
▁gave	-896
▁count	-897
▁remaining	-898
emb	-899
▁inches	-900
▁tre	-901
ley	-902
▁squ	-903
yp	-904
▁—	-905
vern	-906
▁suc	-907
▁cook	-908
▁str	-909
▁lead	-910
▁sign	-911
▁art	-912
rist	-913
▁use	-914
▁pol	-915
ative	-916
ject	-917
ves	-918
▁And	-919
▁Jan	-920
▁sever	-921
▁inter	-922
▁home	-923
▁began	-924
▁main	-925
▁win	-926
▁est	-927
▁received	-928
▁inst	-929
though	-930
▁several	-931
ash	-932
▁return	-933
une	-934
ony	-935
▁prev	-936
▁known	-937
anc	-938
ains	-939
▁lit	-940
▁less	-941
▁mill	-942
▁contin	-943
▁produc	-944
▁po	-945
▁dog	-946
▁ins	-947
▁ref	-948
▁weeks	-949
ized	-950
▁city	-951
▁another	-952
▁diffe	-953
iet	-954
▁rev	-955
ually	-956
▁sl	-957
▁Bl	-958
▁direct	-959
▁Ad	-960
▁air	-961
▁unt	-962
▁points	-963
rap	-964
▁desc	-965
▁costs	-966
▁Is	-967
▁aver	-968
ued	-969
ross	-970
▁May	-971
▁build	-972
alk	-973
▁Ind	-974
▁any	-975
▁lo	-976
▁che	-977
ina	-978
ales	-979
▁def	-980
▁book	-981
▁Con	-982
▁said	-983
ium	-984
▁incre	-985
▁apples	-986
hel	-987
▁cup	-988
eng	-989
▁cal	-990
oman	-991
▁Ger	-992
▁until	-993
▁crit	-994
▁pieces	-995
ract	-996
▁dollars	-997
aving	-998
▁devel	-999
ories	-1000
▁ca	-1001
▁area	-1002
▁means	-1003
▁gall	-1004
▁gu	-1005
▁along	-1006
▁called	-1007
ists	-1008
▁cand	-1009
▁resp	-1010
▁par	-1011
ugust	-1012
▁British	-1013
ee	-1014
▁bat	-1015
▁feat	-1016
▁August	-1017
ially	-1018
▁family	-1019
▁open	-1020
▁Cl	-1021
▁like	-1022
▁century	-1023
amed	-1024
▁hist	-1025
▁Ju	-1026
▁inf	-1027
▁near	-1028
▁bel	-1029
▁far	-1030
ner	-1031
bles	-1032
▁First	-1033
ured	-1034
▁music	-1035
ague	-1036
▁pages	-1037
▁may	-1038
▁episode	-1039
▁dr	-1040
▁Since	-1041
▁posit	-1042
▁early	-1043
▁success	-1044
ped	-1045
▁km	-1046
ime	-1047
▁When	-1048
▁next	-1049
osed	-1050
▁won	-1051
▁large	-1052
ple	-1053
▁conc	-1054
▁offic	-1055
ient	-1056
▁describ	-1057
ches	-1058
ible	-1059
iver	-1060
▁war	-1061
▁oper	-1062
▁American	-1063
▁released	-1064
▁All	-1065
▁price	-1066
oes	-1067
▁cur	-1068
▁house	-1069
▁spend	-1070
▁average	-1071
▁land	-1072
lished	-1073
▁dri	-1074
▁mod	-1075
ery	-1076
▁bas	-1077
▁dam	-1078
lish	-1079
▁around	-1080
▁However	-1081
▁bag	-1082
▁spe	-1083
▁since	-1084
uff	-1085
▁const	-1086
▁million	-1087
▁War	-1088
▁comb	-1089
▁trav	-1090
▁gener	-1091
▁pain	-1092
airs	-1093
gest	-1094
▁ele	-1095
▁sim	-1096
▁Me	-1097
▁appear	-1098
bo	-1099
▁played	-1100
▁Sept	-1101
▁following	-1102
▁scored	-1103
cil	-1104
ruct	-1105
▁Christ	-1106
ries	-1107
▁you	-1108
▁Sp	-1109
let	-1110
▁fish	-1111
▁addition	-1112
▁person	-1113
ideo	-1114
▁occ	-1115
ows	-1116
uck	-1117
omet	-1118
▁store	-1119
gin	-1120
▁Aust	-1121
ister	-1122
▁support	-1123
▁September	-1124
▁ann	-1125
▁head	-1126
ps	-1127
aves	-1128
▁imp	-1129
wards	-1130
▁design	-1131
▁eg	-1132
ended	-1133
▁prof	-1134
▁Gr	-1135
ajor	-1136
▁June	-1137
▁those	-1138
read	-1139
▁Be	-1140
stem	-1141
▁Wor	-1142
aced	-1143
▁age	-1144
▁children	-1145
ills	-1146
▁During	-1147
▁makes	-1148
ilt	-1149
▁prov	-1150
aged	-1151
▁produ	-1152
ism	-1153
▁adv	-1154
ement	-1155
▁govern	-1156
▁giv	-1157
▁still	-1158
▁ed	-1159
▁away	-1160
uth	-1161
▁serv	-1162
▁months	-1163
▁eff	-1164
ivers	-1165
▁partic	-1166
▁even	-1167
▁friends	-1168
▁prom	-1169
▁tick	-1170
▁Tw	-1171
▁bus	-1172
▁Q	-1173
▁Gu	-1174
ots	-1175
▁De	-1176
▁oun	-1177
acter	-1178
▁Tr	-1179
uary	-1180
▁foot	-1181
▁cookies	-1182
▁typ	-1183
▁German	-1184
▁previous	-1185
med	-1186
ops	-1187
raw	-1188
▁paid	-1189
▁company	-1190
used	-1191
ger	-1192
▁single	-1193
ole	-1194
▁blue	-1195
cent	-1196
eter	-1197
▁got	-1198
▁men	-1199
▁requ	-1200
▁US	-1201
▁wants	-1202
▁original	-1203
▁Oct	-1204
▁marbles	-1205
raft	-1206
▁line	-1207
▁top	-1208
ody	-1209
▁World	-1210
▁soc	-1211
uts	-1212
▁Col	-1213
▁Gre	-1214
▁One	-1215
▁var	-1216
▁character	-1217
ately	-1218
▁King	-1219
▁North	-1220
▁north	-1221
▁sent	-1222
▁II	-1223
orts	-1224
▁pen	-1225
▁tit	-1226
lected	-1227
▁October	-1228
▁York	-1229
▁just	-1230
▁vis	-1231
▁name	-1232
▁video	-1233
erv	-1234
▁mult	-1235
rence	-1236
▁turn	-1237
anges	-1238
▁States	-1239
emp	-1240
ects	-1241
ays	-1242
▁hand	-1243
▁went	-1244
▁%	-1245
ls	-1246
▁Comm	-1247
▁July	-1248
▁January	-1249
▁eat	-1250
▁med	-1251
▁care	-1252
ham	-1253
▁tog	-1254
▁short	-1255
▁del	-1256
arn	-1257
▁Pl	-1258
▁state	-1259
▁together	-1260
ience	-1261
▁club	-1262
ection	-1263
▁Dec	-1264
ility	-1265
▁James	-1266
ural	-1267
▁square	-1268
ched	-1269
tles	-1270
ology	-1271
▁Thus	-1272
▁gets	-1273
ording	-1274
ones	-1275
▁gallons	-1276
ional	-1277
▁Par	-1278
ris	-1279
ights	-1280
▁brother	-1281
▁included	-1282
▁different	-1283
rote	-1284
▁system	-1285
▁vers	-1286
▁init	-1287
▁songs	-1288
▁X	-1289
aur	-1290
▁food	-1291
▁major	-1292
aim	-1293
cul	-1294
ission	-1295
..	-1296
▁Se	-1297
▁late	-1298
▁plan	-1299
▁wrote	-1300
ians	-1301
mber	-1302
▁mark	-1303
▁contro	-1304
ech	-1305
aster	-1306
▁To	-1307
ature	-1308
▁public	-1309
iod	-1310
▁By	-1311
▁ounces	-1312
gy	-1313
▁prot	-1314
ively	-1315
▁side	-1316
embers	-1317
▁Mc	-1318
▁sk	-1319
▁allow	-1320
hy	-1321
ae	-1322
omin	-1323
▁came	-1324
att	-1325
▁event	-1326
pril	-1327
ances	-1328
▁April	-1329
▁power	-1330
▁Ph	-1331
▁field	-1332
▁due	-1333
▁able	-1334
▁spends	-1335
▁Eu	-1336
▁gun	-1337
get	-1338
vers	-1339
▁list	-1340
▁named	-1341
ai	-1342
aff	-1343
urs	-1344
ected	-1345
ovember	-1346
ret	-1347
▁November	-1348
ck	-1349
ged	-1350
▁Ro	-1351
▁det	-1352
anted	-1353
ified	-1354
▁eggs	-1355
▁port	-1356
▁poss	-1357
▁Ge	-1358
ital	-1359
▁...	-1360
▁Can	-1361
▁hel	-1362
aining	-1363
▁March	-1364
▁result	-1365
lo	-1366
▁sug	-1367
▁camp	-1368
ropical	-1369
▁boxes	-1370
▁England	-1371
ize	-1372
▁town	-1373
▁storm	-1374
▁making	-1375
line	-1376
ling	-1377
self	-1378
▁report	-1379
avy	-1380
▁hold	-1381
▁world	-1382
▁Austral	-1383
▁[	-1384
▁December	-1385
ges	-1386
▁hum	-1387
▁colle	-1388
ads	-1389
▁cat	-1390
▁white	-1391
▁repres	-1392
ene	-1393
rew	-1394
son	-1395
▁conf	-1396
▁life	-1397
▁South	-1398
▁compet	-1399
hest	-1400
▁local	-1401
▁order	-1402
▁within	-1403
▁kil	-1404
▁described	-1405
▁gl	-1406
▁dou	-1407
▁death	-1408
▁]	-1409
▁ri	-1410
▁period	-1411
▁members	-1412
illed	-1413
▁wind	-1414
ically	-1415
▁south	-1416
▁don	-1417
▁multip	-1418
▁should	-1419
ke	-1420
izz	-1421
▁sw	-1422
ently	-1423
▁place	-1424
imes	-1425
▁Bro	-1426
▁built	-1427
▁lost	-1428
▁Europ	-1429
aper	-1430
▁We	-1431
aken	-1432
▁appro	-1433
min	-1434
rench	-1435
▁la	-1436
▁leg	-1437
▁put	-1438
▁organ	-1439
▁Or	-1440
▁With	-1441
▁anim	-1442
▁dest	-1443
▁ten	-1444
▁Char	-1445
▁City	-1446
▁What	-1447
▁although	-1448
▁government	-1449
be	-1450
▁very	-1451
▁mid	-1452
▁cour	-1453
▁full	-1454
▁stand	-1455
hing	-1456
int	-1457
▁travel	-1458
▁Har	-1459
▁cards	-1460
▁estab	-1461
nes	-1462
▁Am	-1463
▁best	-1464
▁Em	-1465
▁Mon	-1466
▁fourth	-1467
ached	-1468
aces	-1469
▁seconds	-1470
▁way	-1471
▁Div	-1472
▁buys	-1473
aul	-1474
▁trad	-1475
▁term	-1476
ulation	-1477
elt	-1478
▁cle	-1479
▁moved	-1480
▁Bo	-1481
▁ob	-1482
ilar	-1483
▁Will	-1484
▁star	-1485
urric	-1486
▁Mark	-1487
▁cond	-1488
▁attack	-1489
ids	-1490
▁deb	-1491
▁fur	-1492
▁iss	-1493
▁band	-1494
▁based	-1495
▁story	-1496
▁exc	-1497
▁present	-1498
▁Man	-1499
▁belie	-1500
ense	-1501
itar	-1502
ylan	-1503
ler	-1504
▁ft	-1505
▁Dylan	-1506
▁Europe	-1507
ogether	-1508
▁French	-1509
▁night	-1510
ara	-1511
▁Mr	-1512
ness	-1513
▁Ste	-1514
▁dem	-1515
▁National	-1516
omen	-1517
yle	-1518
▁fr	-1519
▁ant	-1520
▁That	-1521
▁pack	-1522
▁pri	-1523
▁among	-1524
▁current	-1525
ne	-1526
▁El	-1527
▁speed	-1528
▁church	-1529
▁Te	-1530
uted	-1531
▁join	-1532
▁sum	-1533
▁eight	-1534
na	-1535
itary	-1536
▁Mary	-1537
▁develop	-1538
▁opp	-1539
▁repl	-1540
▁friend	-1541
▁started	-1542
▁tickets	-1543
ping	-1544
▁my	-1545
ograp	-1546
mon	-1547
iation	-1548
▁review	-1549
▁ate	-1550
▁pick	-1551
▁player	-1552
der	-1553
ior	-1554
oon	-1555
▁level	-1556
▁auth	-1557
▁prog	-1558
▁cars	-1559
▁given	-1560
▁great	-1561
▁works	-1562
▁ra	-1563
▁av	-1564
▁slic	-1565
▁percent	-1566
▁Bar	-1567
▁mor	-1568
▁held	-1569
▁without	-1570
side	-1571
roy	-1572
iqu	-1573
▁No	-1574
▁fire	-1575
▁post	-1576
▁real	-1577
ung	-1578
▁gir	-1579
▁val	-1580
ese	-1581
▁Ol	-1582
eds	-1583
▁Ab	-1584
▁Pr	-1585
▁see	-1586
▁fore	-1587
▁led	-1588
▁pizz	-1589
▁role	-1590
▁black	-1591
▁father	-1592
▁building	-1593
▁Mich	-1594
ruction	-1595
ases	-1596
▁Tom	-1597
▁mother	-1598
ems	-1599
▁Ne	-1600
owers	-1601
af	-1602
▁Ke	-1603
oons	-1604
▁added	-1605
eth	-1606
ator	-1607
▁Min	-1608
▁League	-1609
ices	-1610
ention	-1611
▁eng	-1612
▁English	-1613
ters	-1614
▁sand	-1615
▁round	-1616
▁minute	-1617
▁players	-1618
ms	-1619
inc	-1620
▁bar	-1621
▁sit	-1622
▁arch	-1623
▁having	-1624
▁represent	-1625
lev	-1626
uss	-1627
▁fem	-1628
▁trip	-1629
▁weigh	-1630
au	-1631
urricane	-1632
▁uses	-1633
▁word	-1634
▁youn	-1635
idered	-1636
▁track	-1637
▁Church	-1638
▁slices	-1639
ien	-1640
▁cups	-1641
ensive	-1642
▁combined	-1643
ead	-1644
▁Ha	-1645
room	-1646
▁Pol	-1647
▁pat	-1648
ength	-1649
▁weight	-1650
▁walk	-1651
▁decided	-1652
▁claim	-1653
▁earned	-1654
ering	-1655
ape	-1656
ried	-1657
▁State	-1658
▁sells	-1659
▁command	-1660
▁history	-1661
▁often	-1662
ebru	-1663
▁Bill	-1664
▁expl	-1665
val	-1666
▁cou	-1667
▁mag	-1668
▁room	-1669
ael	-1670
irts	-1671
▁goal	-1672
▁distance	-1673
▁recorded	-1674
▁considered	-1675
ald	-1676
rod	-1677
idge	-1678
▁Acc	-1679
▁match	-1680
▁become	-1681
▁fru	-1682
▁capt	-1683
▁must	-1684
▁continued	-1685
ving	-1686
▁park	-1687
ying	-1688
▁length	-1689
▁though	-1690
▁Ed	-1691
▁exper	-1692
▁trees	-1693
▁arri	-1694
▁infl	-1695
esp	-1696
▁Old	-1697
ready	-1698
▁Count	-1699
▁career	-1700
▁ve	-1701
▁Febru	-1702
▁manag	-1703
▁February	-1704
▁Sim	-1705
br	-1706
▁right	-1707
▁similar	-1708
reet	-1709
▁Canad	-1710
▁quar	-1711
▁fig	-1712
▁mat	-1713
▁stat	-1714
▁wall	-1715
▁species	-1716
▁Comp	-1717
▁commun	-1718
▁already	-1719
ternational	-1720
▁z	-1721
ams	-1722
▁Fl	-1723
▁sn	-1724
▁Ass	-1725
aning	-1726
▁Roman	-1727
▁produced	-1728
▁Two	-1729
ampions	-1730
ocks	-1731
iving	-1732
▁free	-1733
▁former	-1734
▁returned	-1735
▁vict	-1736
▁import	-1737
▁position	-1738
off	-1739
▁few	-1740
▁sal	-1741
▁good	-1742
▁move	-1743
me	-1744
ellow	-1745
▁bird	-1746
▁view	-1747
▁particular	-1748
sp	-1749
▁Jack	-1750
▁dogs	-1751
▁road	-1752
▁While	-1753
▁pencil	-1754
ws	-1755
▁Ev	-1756
▁gold	-1757
▁equal	-1758
▁title	-1759
▁strong	-1760
▁el	-1761
▁bags	-1762
astern	-1763
ica	-1764
ored	-1765
▁flo	-1766
▁fif	-1767
▁further	-1768
▁population	-1769
▁Sam	-1770
▁cans	-1771
▁defe	-1772
▁According	-1773
▁production	-1774
▁Per	-1775
▁entire	-1776
ailed	-1777
▁west	-1778
▁point	-1779
▁yards	-1780
▁written	-1781
sh	-1782
ump	-1783
▁Bat	-1784
erest	-1785
▁multiply	-1786
▁son	-1787
iness	-1788
ket	-1789
▁cut	-1790
▁tall	-1791
▁author	-1792
▁additional	-1793
ails	-1794
iversity	-1795
ploy	-1796
▁West	-1797
▁know	-1798
▁going	-1799
▁release	-1800
▁interest	-1801
augh	-1802
▁east	-1803
rought	-1804
osp	-1805
▁hig	-1806
▁runs	-1807
▁published	-1808
err	-1809
ips	-1810
ither	-1811
▁fact	-1812
yn	-1813
dom	-1814
▁site	-1815
ana	-1816
oth	-1817
irth	-1818
▁low	-1819
▁stri	-1820
▁gives	-1821
▁paint	-1822
iding	-1823
▁Ang	-1824
▁appe	-1825
▁seven	-1826
▁sister	-1827
▁working	-1828
▁tropical	-1829
ront	-1830
▁tro	-1831
▁Rober	-1832
▁version	-1833
▁Fed	-1834
▁sou	-1835
▁William	-1836
▁using	-1837
▁calcul	-1838
▁military	-1839
unch	-1840
▁Geor	-1841
▁Rich	-1842
▁polit	-1843
▁Ire	-1844
▁light	-1845
▁women	-1846
▁country	-1847
isc	-1848
uct	-1849
uced	-1850
▁Mag	-1851
▁sav	-1852
▁saw	-1853
▁sol	-1854
▁Ireland	-1855
▁popular	-1856
▁base	-1857
▁give	-1858
▁Division	-1859
erer	-1860
▁ste	-1861
▁Park	-1862
▁reported	-1863
ising	-1864
▁however	-1865
▁Bob	-1866
▁Mus	-1867
▁prop	-1868
▁beh	-1869
ires	-1870
over	-1871
▁lim	-1872
aying	-1873
▁worth	-1874
▁ground	-1875
▁seen	-1876
▁across	-1877
▁Although	-1878
app	-1879
rab	-1880
aren	-1881
▁Fin	-1882
▁break	-1883
▁reach	-1884
con	-1885
sequ	-1886
▁mix	-1887
▁meet	-1888
▁common	-1889
▁project	-1890
▁Af	-1891
▁ap	-1892
▁Cal	-1893
iment	-1894
▁body	-1895
▁party	-1896
com	-1897
▁stated	-1898
gr	-1899
ott	-1900
▁god	-1901
▁Lond	-1902
▁earl	-1903
▁finish	-1904
▁island	-1905
▁himself	-1906
ford	-1907
ille	-1908
▁pit	-1909
▁pot	-1910
▁green	-1911
▁worked	-1912
work	-1913
itions	-1914
▁begin	-1915
▁brought	-1916
▁vol	-1917
▁eats	-1918
▁goals	-1919
▁purch	-1920
▁quarter	-1921
ush	-1922
▁bur	-1923
▁let	-1924
estern	-1925
▁cor	-1926
▁influ	-1927
▁critic	-1928
▁meters	-1929
▁wat	-1930
▁Mond	-1931
▁bill	-1932
▁ships	-1933
ison	-1934
▁Dav	-1935
ney	-1936
icks	-1937
iting	-1938
▁Paul	-1939
▁oranges	-1940
▁doz	-1941
▁law	-1942
▁cust	-1943
▁employ	-1944
▁reached	-1945
ief	-1946
▁tree	-1947
▁London	-1948
levision	-1949
▁destroy	-1950
▁include	-1951
earch	-1952
thern	-1953
▁cast	-1954
▁bottles	-1955
▁remained	-1956
gre	-1957
ways	-1958
▁problem	-1959
to	-1960
bor	-1961
rie	-1962
omers	-1963
▁candy	-1964
▁aff	-1965
▁announ	-1966
▁pencils	-1967
▁playing	-1968
aring	-1969
▁cult	-1970
▁pract	-1971
▁Air	-1972
▁enough	-1973
▁Cent	-1974
▁discount	-1975
▁Co	-1976
▁kg	-1977
rest	-1978
erred	-1979
▁birth	-1980
ico	-1981
▁You	-1982
▁elect	-1983
▁invol	-1984
▁Monday	-1985
▁change	-1986
▁finished	-1987
▁quest	-1988
▁performed	-1989
▁throughout	-1990
umb	-1991
▁least	-1992
▁never	-1993
▁press	-1994
▁taken	-1995
▁writing	-1996
iety	-1997
▁nov	-1998
▁histor	-1999
▁thought	-2000
▁Cor	-2001
field	-2002
▁originally	-2003
ably	-2004
ertain	-2005
▁successful	-2006
mp	-2007
hern	-2008
ocol	-2009
▁conv	-2010
▁once	-2011
▁human	-2012
mar	-2013
ope	-2014
▁rate	-2015
▁Mount	-2016
ki	-2017
dle	-2018
fic	-2019
ript	-2020
▁Afric	-2021
ination	-2022
▁regular	-2023
atic	-2024
illa	-2025
▁tom	-2026
▁Jord	-2027
ino	-2028
ume	-2029
enth	-2030
▁River	-2031
▁mount	-2032
▁suggest	-2033
orthern	-2034
ampionship	-2035
empt	-2036
▁fav	-2037
▁fle	-2038
▁somet	-2039
iday	-2040
▁Roy	-2041
▁nec	-2042
▁born	-2043
▁Black	-2044
▁football	-2045
▁developed	-2046
ivil	-2047
▁Mad	-2048
▁mph	-2049
ument	-2050
▁died	-2051
▁needed	-2052
▁animals	-2053
▁University	-2054
itt	-2055
uel	-2056
apan	-2057
▁coun	-2058
▁shop	-2059
▁noted	-2060
artment	-2061
▁established	-2062
sc	-2063
aby	-2064
▁ran	-2065
▁Peter	-2066
▁chocol	-2067
▁various	-2068
cle	-2069
abor	-2070
▁signific	-2071
▁performance	-2072
craft	-2073
ox	-2074
ees	-2075
▁past	-2076
▁double	-2077
▁events	-2078
▁cir	-2079
▁fun	-2080
▁lik	-2081
▁High	-2082
▁These	-2083
▁Jordan	-2084
▁special	-2085
den	-2086
▁Sw	-2087
▁miss	-2088
▁paper	-2089
ression	-2090
▁increased	-2091
ift	-2092
echn	-2093
▁pair	-2094
▁Japan	-2095
▁balls	-2096
▁created	-2097
irt	-2098
cher	-2099
ivid	-2100
vest	-2101
▁rad	-2102
▁From	-2103
▁Town	-2104
▁felt	-2105
▁mach	-2106
▁caused	-2107
view	-2108
▁tax	-2109
▁Michael	-2110
▁calories	-2111
▁Jos	-2112
▁cover	-2113
lls	-2114
▁Go	-2115
reed	-2116
▁Reg	-2117
▁too	-2118
▁look	-2119
▁tour	-2120
elly	-2121
ming	-2122
idence	-2123
▁completed	-2124
wh	-2125
tain	-2126
▁grow	-2127
▁liters	-2128
aps	-2129
▁Let	-2130
asing	-2131
isted	-2132
▁pairs	-2133
▁contains	-2134
eep	-2135
ival	-2136
▁Ear	-2137
▁Hen	-2138
▁forces	-2139
▁Ale	-2140
▁promot	-2141
ita	-2142
▁race	-2143
▁activ	-2144
▁cross	-2145
▁blocks	-2146
▁important	-2147
▁collected	-2148
▁fac	-2149
▁Oliv	-2150
▁County	-2151
▁introd	-2152
ological	-2153
atur	-2154
▁Jer	-2155
▁fly	-2156
▁struct	-2157
▁flowers	-2158
ota	-2159
oice	-2160
▁Rac	-2161
▁burn	-2162
▁save	-2163
▁vill	-2164
▁dozen	-2165
▁morning	-2166
▁Pat	-2167
▁dro	-2168
▁obs	-2169
▁sales	-2170
▁program	-2171
hic	-2172
▁Sup	-2173
ables	-2174
▁throw	-2175
▁leaves	-2176
▁Cup	-2177
▁draw	-2178
ration	-2179
▁Kingdom	-2180
esc	-2181
iers	-2182
▁fund	-2183
▁suff	-2184
▁yellow	-2185
▁television	-2186
*.	-2187
hour	-2188
▁loss	-2189
▁sound	-2190
ference	-2191
▁modern	-2192
▁instead	-2193
▁selling	-2194
▁official	-2195
ogn	-2196
omes	-2197
stit	-2198
▁aud	-2199
de	-2200
▁Gl	-2201
▁cm	-2202
anna	-2203
▁ide	-2204
▁Tues	-2205
▁profit	-2206
▁Tuesday	-2207
▁relations	-2208
ze	-2209
owl	-2210
▁surv	-2211
▁brown	-2212
▁pizza	-2213
▁plant	-2214
▁sides	-2215
imately	-2216
▁served	-2217
▁wanted	-2218
▁’	-2219
▁route	-2220
▁female	-2221
▁meaning	-2222
▁ordered	-2223
amb	-2224
▁Pal	-2225
▁wid	-2226
▁Port	-2227
▁teac	-2228
▁Grand	-2229
▁award	-2230
ization	-2231
▁either	-2232
ma	-2233
vert	-2234
▁job	-2235
▁Carl	-2236
▁decl	-2237
▁guns	-2238
▁size	-2239
▁battle	-2240
▁shirts	-2241
▁significant	-2242
▁Cr	-2243
alth	-2244
▁Act	-2245
▁chart	-2246
▁Robert	-2247
▁Federer	-2248
▁control	-2249
▁individ	-2250
▁profess	-2251
ama	-2252
ades	-2253
▁gen	-2254
ament	-2255
▁live	-2256
▁business	-2257
▁construction	-2258
anged	-2259
ators	-2260
▁sour	-2261
▁whole	-2262
less	-2263
ston	-2264
▁hit	-2265
oring	-2266
▁Thom	-2267
▁prim	-2268
▁cents	-2269
▁others	-2270
▁development	-2271
era	-2272
▁hous	-2273
▁rain	-2274
▁chick	-2275
▁Rachel	-2276
ring	-2277
acters	-2278
ressed	-2279
▁accom	-2280
▁examp	-2281
▁force	-2282
▁America	-2283
▁collect	-2284
▁located	-2285
▁station	-2286
acy	-2287
▁Jim	-2288
▁pra	-2289
azine	-2290
▁peak	-2291
▁Frank	-2292
ster	-2293
▁tur	-2294
▁wood	-2295
▁girls	-2296
▁account	-2297
▁attempt	-2298
▁stop	-2299
▁tank	-2300
ficult	-2301
▁occur	-2302
▁announced	-2303
go	-2304
▁Je	-2305
▁coll	-2306
▁corn	-2307
▁heavy	-2308
▁contrib	-2309
▁hurricane	-2310
▁cy	-2311
▁Phil	-2312
▁Gener	-2313
▁ce	-2314
▁Ben	-2315
▁tem	-2316
ences	-2317
▁Ir	-2318
▁Wed	-2319
▁test	-2320
arters	-2321
▁David	-2322
▁difficult	-2323
▁collection	-2324
orse	-2325
▁har	-2326
▁hot	-2327
▁vot	-2328
▁fall	-2329
▁wife	-2330
▁fifth	-2331
▁front	-2332
▁style	-2333
▁damage	-2334
▁Company	-2335
▁manager	-2336
▁characters	-2337
▁Whe	-2338
itted	-2339
pe	-2340
board	-2341
osing	-2342
▁prep	-2343
▁range	-2344
▁words	-2345
▁George	-2346
▁little	-2347
▁taking	-2348
▁running	-2349
▁national	-2350
▁Island	-2351
▁followed	-2352
fall	-2353
inks	-2354
▁Ant	-2355
▁help	-2356
▁keep	-2357
▁areas	-2358
▁appoin	-2359
▁basket	-2360
▁currently	-2361
liam	-2362
▁Ser	-2363
▁Care	-2364
▁cats	-2365
▁rock	-2366
▁commer	-2367
▁critics	-2368
▁Australia	-2369
upp	-2370
aign	-2371
reek	-2372
▁Mex	-2373
▁ask	-2374
tract	-2375
ublic	-2376
▁meas	-2377
▁older	-2378
▁calculate	-2379
iol	-2380
ells	-2381
errit	-2382
iated	-2383
▁pred	-2384
▁techn	-2385
▁initially	-2386
▁Atl	-2387
atoes	-2388
epend	-2389
▁Hero	-2390
▁phot	-2391
▁divide	-2392
▁appeared	-2393
ata	-2394
▁mm	-2395
aint	-2396
most	-2397
▁fewer	-2398
▁ident	-2399
▁items	-2400
▁Wednes	-2401
▁member	-2402
▁complete	-2403
▁tradition	-2404
cer	-2405
ayed	-2406
▁Ham	-2407
▁big	-2408
▁conn	-2409
▁pays	-2410
▁movie	-2411
▁remov	-2412
▁process	-2413
▁respect	-2414
▁Wednesday	-2415
ests	-2416
iles	-2417
▁estim	-2418
▁invest	-2419
eler	-2420
▁Bra	-2421
▁boys	-2422
▁milk	-2423
▁Carol	-2424
▁White	-2425
▁daugh	-2426
▁political	-2427
ecut	-2428
uter	-2429
liament	-2430
▁relationship	-2431
▁alt	-2432
▁mater	-2433
▁stick	-2434
▁effect	-2435
▁opened	-2436
▁outside	-2437
▁Now	-2438
▁coff	-2439
▁goes	-2440
▁step	-2441
▁assoc	-2442
▁service	-2443
▁Pe	-2444
wood	-2445
▁But	-2446
▁Cro	-2447
▁Jul	-2448
▁Red	-2449
▁Army	-2450
▁Love	-2451
▁attemp	-2452
ding	-2453
reat	-2454
▁cop	-2455
thlet	-2456
▁Alex	-2457
▁want	-2458
ground	-2459
ayl	-2460
vin	-2461
ream	-2462
▁Ber	-2463
▁Gal	-2464
▁Sec	-2465
▁arg	-2466
▁pur	-2467
▁bars	-2468
▁poem	-2469
arents	-2470
▁fight	-2471
▁plants	-2472
▁Wil	-2473
▁lot	-2474
▁neigh	-2475
▁killed	-2476
▁kilomet	-2477
ius	-2478
▁dev	-2479
▁reb	-2480
▁sep	-2481
▁Henry	-2482
▁visit	-2483
▁features	-2484
oo	-2485
ider	-2486
oses	-2487
▁ban	-2488
▁Rock	-2489
▁chap	-2490
▁seas	-2491
▁bring	-2492
▁league	-2493
fl	-2494
▁ir	-2495
rict	-2496
▁non	-2497
▁voc	-2498
ogram	-2499
▁yard	-2500
▁impro	-2501
▁packs	-2502
▁buying	-2503
▁region	-2504
▁comment	-2505
▁chocolate	-2506
omb	-2507
ses	-2508
ught	-2509
▁Sar	-2510
▁mom	-2511
empor	-2512
▁Tech	-2513
▁grad	-2514
▁king	-2515
▁Carey	-2516
▁study	-2517
▁height	-2518
▁southern	-2519
▁gas	-2520
▁hon	-2521
▁sod	-2522
▁farm	-2523
▁fruit	-2524
▁sandw	-2525
▁General	-2526
▁Olivier	-2527
emy	-2528
anch	-2529
▁wide	-2530
▁avail	-2531
▁parts	-2532
▁separ	-2533
▁Oldham	-2534
▁formed	-2535
▁towards	-2536
ih	-2537
angu	-2538
▁Rep	-2539
▁sil	-2540
▁Sund	-2541
▁prob	-2542
elling	-2543
▁shoes	-2544
▁leading	-2545
▁campaign	-2546
ule	-2547
chie	-2548
▁wal	-2549
▁Friday	-2550
▁recogn	-2551
▁contain	-2552
reng	-2553
ults	-2554
aturday	-2555
▁joined	-2556
▁picked	-2557
▁weighs	-2558
▁commerc	-2559
▁victory	-2560
▁eventually	-2561
▁My	-2562
enty	-2563
ucks	-2564
▁ren	-2565
▁come	-2566
▁prote	-2567
▁passed	-2568
*$	-2569
ask	-2570
gypt	-2571
▁kids	-2572
talion	-2573
▁Royal	-2574
▁Three	-2575
▁grand	-2576
▁subsequ	-2577
▁teacher	-2578
▁Saturday	-2579
▁director	-2580
uz	-2581
rian	-2582
ining	-2583
▁insp	-2584
▁Angel	-2585
▁House	-2586
▁relig	-2587
▁today	-2588
▁allowed	-2589
ality	-2590
▁clot	-2591
▁fill	-2592
▁hair	-2593
▁Egypt	-2594
▁earns	-2595
▁earlier	-2596
ique	-2597
▁Hol	-2598
▁East	-2599
▁supp	-2600
overed	-2601
▁close	-2602
▁extra	-2603
▁action	-2604
▁Sy	-2605
▁God	-2606
▁Ital	-2607
▁type	-2608
▁decides	-2609
▁featured	-2610
sel	-2611
aker	-2612
band	-2613
▁Dan	-2614
▁Mor	-2615
▁units	-2616
▁value	-2617
▁young	-2618
unt	-2619
aily	-2620
ites	-2621
▁Some	-2622
iction	-2623
▁watch	-2624
▁Thomas	-2625
▁beginning	-2626
▁mot	-2627
antic	-2628
oming	-2629
▁host	-2630
▁sets	-2631
▁dress	-2632
▁drive	-2633
▁Guitar	-2634
▁center	-2635
▁market	-2636
▁eastern	-2637
▁highest	-2638
▁aircraft	-2639
▁possible	-2640
uit	-2641
iber	-2642
▁Don	-2643
▁Jenn	-2644
▁norm	-2645
▁Music	-2646
▁broad	-2647
▁touch	-2648
▁France	-2649
▁European	-2650
▁episodes	-2651
imum	-2652
▁Hel	-2653
▁Val	-2654
▁deal	-2655
▁hard	-2656
▁displ	-2657
▁general	-2658
▁directed	-2659
tt	-2660
uk	-2661
ken	-2662
ened	-2663
▁San	-2664
▁arm	-2665
▁Brig	-2666
▁case	-2667
▁reve	-2668
▁birds	-2669
▁highway	-2670
▁increase	-2671
of	-2672
igned	-2673
useum	-2674
▁Road	-2675
▁novel	-2676
ecutive	-2677
▁placed	-2678
▁largest	-2679
▁material	-2680
amps	-2681
▁enc	-2682
▁ice	-2683
▁sem	-2684
thing	-2685
▁Best	-2686
▁whom	-2687
▁coffee	-2688
▁groups	-2689
▁signed	-2690
▁contract	-2691
▁particip	-2692
eal	-2693
icy	-2694
▁Qu	-2695
down	-2696
▁fort	-2697
▁behind	-2698
▁remains	-2699
ek	-2700
▁fre	-2701
▁carry	-2702
▁caught	-2703
xas	-2704
west	-2705
▁Vir	-2706
▁Jane	-2707
▁legs	-2708
▁School	-2709
▁certain	-2710
▁damaged	-2711
▁kilogram	-2712
▁problems	-2713
▁available	-2714
▁therefore	-2715
gar	-2716
eption	-2717
▁Follow	-2718
▁figure	-2719
▁example	-2720
▁parents	-2721
▁Together	-2722
▁difference	-2723
gen	-2724
aded	-2725
ania	-2726
▁Mart	-2727
▁grap	-2728
▁scre	-2729
▁told	-2730
▁Brown	-2731
▁Every	-2732
▁above	-2733
▁longer	-2734
▁balloons	-2735
hod	-2736
lit	-2737
eral	-2738
▁Cong	-2739
▁lack	-2740
▁sequ	-2741
▁indic	-2742
▁bottle	-2743
▁inform	-2744
▁streng	-2745
▁central	-2746
ny	-2747
ibr	-2748
ste	-2749
▁NY	-2750
▁Sl	-2751
▁Penn	-2752
▁clos	-2753
▁ever	-2754
▁Scient	-2755
▁opening	-2756
▁believed	-2757
▁appearance	-2758
▁commercial	-2759
imb	-2760
▁Ac	-2761
▁Day	-2762
▁inj	-2763
▁lat	-2764
▁rul	-2765
aches	-2766
istic	-2767
▁favor	-2768
▁forest	-2769
co	-2770
▁Bet	-2771
▁jour	-2772
▁love	-2773
▁shows	-2774
▁stage	-2775
berries	-2776
▁saying	-2777
▁Following	-2778
jects	-2779
▁Pres	-2780
▁desp	-2781
▁Irish	-2782
▁achie	-2783
▁winning	-2784
▁generally	-2785
▁Australian	-2786
nal	-2787
▁bi	-2788
▁Mac	-2789
arden	-2790
▁male	-2791
▁drink	-2792
▁temper	-2793
▁turned	-2794
medi	-2795
▁Tor	-2796
▁nar	-2797
ential	-2798
▁flood	-2799
▁langu	-2800
▁Wheeler	-2801
▁Christian	-2802
▁Sm	-2803
cast	-2804
here	-2805
▁Med	-2806
anned	-2807
▁Most	-2808
▁rank	-2809
▁Other	-2810
▁winds	-2811
▁Im	-2812
▁ey	-2813
▁op	-2814
pped	-2815
▁App	-2816
▁mile	-2817
▁bread	-2818
▁Command	-2819
ett	-2820
▁bills	-2821
▁plans	-2822
▁transf	-2823
▁Championship	-2824
aven	-2825
hens	-2826
lymp	-2827
▁Jew	-2828
▁Over	-2829
▁shot	-2830
hedral	-2831
▁Indian	-2832
▁smaller	-2833
▁provided	-2834
▁training	-2835
AF	-2836
ago	-2837
▁foc	-2838
acing	-2839
conom	-2840
▁Desp	-2841
▁baby	-2842
▁numb	-2843
▁Olymp	-2844
▁chairs	-2845
▁respons	-2846
▁designed	-2847
▁evidence	-2848
▁subtract	-2849
▁percentage	-2850
▁Ma	-2851
▁wa	-2852
ayer	-2853
chol	-2854
▁Nic	-2855
▁sale	-2856
▁Despite	-2857
▁particularly	-2858
▁rat	-2859
anger	-2860
ounts	-2861
▁Mike	-2862
▁hors	-2863
▁upon	-2864
▁debut	-2865
▁glass	-2866
▁forced	-2867
▁houses	-2868
▁indust	-2869
▁candies	-2870
▁receive	-2871
▁required	-2872
▁interview	-2873
▁recording	-2874
▁hy	-2875
ceed	-2876
omer	-2877
ville	-2878
▁Hall	-2879
▁Matt	-2880
▁Jacks	-2881
▁suppl	-2882
▁Street	-2883
▁Sunday	-2884
ares	-2885
▁Pre	-2886
▁Game	-2887
▁river	-2888
▁saved	-2889
▁archae	-2890
▁leaving	-2891
▁elements	-2892
urg	-2893
▁Law	-2894
▁net	-2895
▁adop	-2896
▁cart	-2897
▁viol	-2898
▁coast	-2899
▁attend	-2900
▁writer	-2901
▁restaur	-2902
▁student	-2903
▁community	-2904
▁international	-2905
men	-2906
ault	-2907
▁Cap	-2908
▁sex	-2909
▁civil	-2910
▁ended	-2911
▁almost	-2912
▁transport	-2913
rup	-2914
urt	-2915
▁Dep	-2916
▁beg	-2917
▁esc	-2918
▁crew	-2919
▁nine	-2920
▁share	-2921
▁think	-2922
▁Mexico	-2923
▁living	-2924
▁office	-2925
▁Jackson	-2926
▁arrived	-2927
▁previously	-2928
ha	-2929
ulf	-2930
▁TV	-2931
ship	-2932
▁issue	-2933
▁quick	-2934
▁rather	-2935
lin	-2936
▁Ann	-2937
▁pers	-2938
▁conduct	-2939
▁construct	-2940
por	-2941
ude	-2942
ella	-2943
ises	-2944
itor	-2945
ners	-2946
▁swe	-2947
▁Super	-2948
▁space	-2949
ilities	-2950
▁daughter	-2951
▁competition	-2952
alt	-2953
mas	-2954
▁Kh	-2955
nder	-2956
inner	-2957
▁lines	-2958
▁determ	-2959
▁giving	-2960
▁territ	-2961
▁replaced	-2962
▁International	-2963
ifa	-2964
leg	-2965
omm	-2966
unk	-2967
▁mi	-2968
▁mem	-2969
inese	-2970
▁mass	-2971
▁soon	-2972
▁treat	-2973
▁Canada	-2974
▁social	-2975
▁forward	-2976
▁estimated	-2977
▁Tre	-2978
▁log	-2979
▁deep	-2980
atural	-2981
▁Times	-2982
▁Scientology	-2983
ateg	-2984
rect	-2985
▁Navy	-2986
▁diss	-2987
▁leave	-2988
▁Chinese	-2989
▁complet	-2990
▁section	-2991
▁village	-2992
▁La	-2993
itch	-2994
▁Sus	-2995
▁bed	-2996
uation	-2997
▁occup	-2998
▁straw	-2999
▁Virgin	-3000
▁specific	-3001
+$	-3002
andy	-3003
onst	-3004
▁Bec	-3005
▁Pet	-3006
▁kill	-3007
uction	-3008
▁Haifa	-3009
▁Andrew	-3010
▁reviews	-3011
head	-3012
house	-3013
stein	-3014
vered	-3015
▁cycl	-3016
▁pens	-3017
isting	-3018
▁lunch	-3019
▁terms	-3020
▁despite	-3021
▁praised	-3022
ook	-3023
que	-3024
back	-3025
▁Bel	-3026
▁abs	-3027
rated	-3028
▁floor	-3029
▁write	-3030
▁magazine	-3031
zy	-3032
urb	-3033
imin	-3034
▁McC	-3035
grees	-3036
▁surf	-3037
▁liter	-3038
▁nomin	-3039
▁flight	-3040
▁raised	-3041
▁regard	-3042
▁summer	-3043
▁degrees	-3044
▁involved	-3045
▁questions	-3046
week	-3047
▁Que	-3048
▁Str	-3049
▁shoot	-3050
▁studio	-3051
▁machine	-3052
▁Christmas	-3053
ari	-3054
isa	-3055
▁Dr	-3056
▁Squ	-3057
▁doc	-3058
▁ill	-3059
▁pig	-3060
antry	-3061
▁Later	-3062
▁asked	-3063
▁plays	-3064
▁walks	-3065
▁woman	-3066
▁divided	-3067
rd	-3068
reak	-3069
utes	-3070
▁mer	-3071
aylor	-3072
▁Brad	-3073
▁cred	-3074
▁date	-3075
ography	-3076
▁econom	-3077
▁proper	-3078
▁initial	-3079
▁Mo	-3080
▁Of	-3081
aled	-3082
▁Ross	-3083
▁bank	-3084
▁kind	-3085
▁block	-3086
▁seeds	-3087
emporary	-3088
enon	-3089
yard	-3090
aries	-3091
erved	-3092
▁pool	-3093
▁drinks	-3094
▁Britain	-3095
▁claimed	-3096
een	-3097
itz	-3098
iser	-3099
itte	-3100
▁Pac	-3101
▁den	-3102
▁max	-3103
heast	-3104
ession	-3105
▁coach	-3106
▁scene	-3107
▁itself	-3108
▁Canadian	-3109
edy	-3110
bert	-3111
vere	-3112
▁rap	-3113
elled	-3114
owler	-3115
▁whose	-3116
▁charge	-3117
▁failed	-3118
▁covered	-3119
▁usually	-3120
▁starting	-3121
kn	-3122
ray	-3123
clus	-3124
fect	-3125
olic	-3126
omal	-3127
▁Off	-3128
ronic	-3129
▁Song	-3130
▁done	-3131
▁feel	-3132
uments	-3133
veston	-3134
▁coins	-3135
▁schol	-3136
▁Govern	-3137
▁agreed	-3138
▁assist	-3139
▁Galveston	-3140
▁suggested	-3141
▁commission	-3142
▁operations	-3143
awn	-3144
▁Er	-3145
anas	-3146
iest	-3147
rang	-3148
▁Bay	-3149
▁III	-3150
▁key	-3151
athan	-3152
anding	-3153
▁India	-3154
▁Their	-3155
▁cakes	-3156
▁learn	-3157
▁guitar	-3158
▁discuss	-3159
▁birthday	-3160
hib	-3161
▁Dj	-3162
▁ly	-3163
ores	-3164
▁Tod	-3165
▁sle	-3166
▁tar	-3167
uture	-3168
▁Miss	-3169
▁poet	-3170
▁jelly	-3171
▁vehic	-3172
ospital	-3173
▁stickers	-3174
▁according	-3175
for	-3176
agon	-3177
time	-3178
▁Bey	-3179
osaur	-3180
▁phys	-3181
▁poor	-3182
selves	-3183
▁Charl	-3184
▁court	-3185
▁fleet	-3186
▁mixed	-3187
▁roses	-3188
▁butter	-3189
▁charges	-3190
▁matches	-3191
▁introduced	-3192
▁themselves	-3193
ully	-3194
▁aut	-3195
ester	-3196
stant	-3197
▁gods	-3198
usband	-3199
▁Award	-3200
▁notes	-3201
ky	-3202
apt	-3203
ands	-3204
atin	-3205
lets	-3206
▁Tim	-3207
▁vac	-3208
▁Part	-3209
▁priv	-3210
▁clear	-3211
▁minor	-3212
ibility	-3213
▁horses	-3214
▁capital	-3215
▁defeated	-3216
▁appointed	-3217
che	-3218
onc	-3219
▁sq	-3220
hood	-3221
year	-3222
▁Haw	-3223
iches	-3224
▁Gold	-3225
▁cupc	-3226
▁neck	-3227
▁rail	-3228
▁Assoc	-3229
▁might	-3230
▁train	-3231
▁Taylor	-3232
▁larger	-3233
▁orders	-3234
▁records	-3235
▁neighbor	-3236
▁probably	-3237
▁basketball	-3238
▁increasing	-3239
tr	-3240
asy	-3241
▁Not	-3242
▁Viet	-3243
▁roll	-3244
ington	-3245
▁always	-3246
▁immedi	-3247
▁intens	-3248
▁nearly	-3249
▁mention	-3250
▁removed	-3251
▁customers	-3252
ga	-3253
oke	-3254
olf	-3255
anda	-3256
illy	-3257
pool	-3258
well	-3259
▁Cath	-3260
▁Hill	-3261
▁Light	-3262
▁Scott	-3263
▁changes	-3264
▁Republic	-3265
▁computer	-3266
▁professional	-3267
▁Ex	-3268
▁Lu	-3269
▁Lou	-3270
▁emb	-3271
▁Mont	-3272
▁disp	-3273
▁feed	-3274
▁fell	-3275
▁Thurs	-3276
▁teams	-3277
▁Polish	-3278
▁police	-3279
▁states	-3280
▁ticket	-3281
▁Charles	-3282
▁produce	-3283
▁touchdown	-3284
inct	-3285
▁cho	-3286
uests	-3287
▁Isra	-3288
▁cake	-3289
minist	-3290
▁prior	-3291
ability	-3292
▁concert	-3293
▁seasons	-3294
▁traveled	-3295
▁establish	-3296
ancy	-3297
essa	-3298
▁Rob	-3299
▁jar	-3300
▁lab	-3301
arily	-3302
lings	-3303
urity	-3304
using	-3305
▁Half	-3306
▁Zeal	-3307
isions	-3308
▁Great	-3309
▁Villa	-3310
▁react	-3311
▁Israel	-3312
▁course	-3313
▁engine	-3314
▁middle	-3315
▁moving	-3316
▁twenty	-3317
▁Zealand	-3318
▁monthly	-3319
▁schools	-3320
▁western	-3321
▁Thursday	-3322
ada	-3323
aly	-3324
teen	-3325
▁ded	-3326
▁neg	-3327
andon	-3328
udget	-3329
▁Star	-3330
minute	-3331
▁Union	-3332
▁beads	-3333
▁contr	-3334
▁trade	-3335
▁walls	-3336
▁Nicole	-3337
▁inside	-3338
▁Pacific	-3339
▁married	-3340
▁northern	-3341
▁research	-3342
rug	-3343
▁di	-3344
anks	-3345
▁Hot	-3346
ously	-3347
▁cray	-3348
▁educ	-3349
▁fast	-3350
▁slow	-3351
ibrary	-3352
▁Chris	-3353
▁Saint	-3354
▁cream	-3355
▁withd	-3356
▁guests	-3357
▁numbers	-3358
▁compared	-3359
▁Parliament	-3360
BC	-3361
da	-3362
▁?	-3363
abb	-3364
oid	-3365
uals	-3366
▁Che	-3367
▁Mid	-3368
▁fro	-3369
light	-3370
▁card	-3371
▁mess	-3372
▁text	-3373
▁Creek	-3374
▁piece	-3375
▁threat	-3376
▁troops	-3377
▁Richard	-3378
▁stories	-3379
▁experience	-3380
▁restaurant	-3381
iff	-3382
rief	-3383
▁tow	-3384
adron	-3385
asion	-3386
ients	-3387
▁Alice	-3388
▁holds	-3389
▁filled	-3390
▁kilograms	-3391
tery	-3392
▁Nor	-3393
▁Ott	-3394
▁Sub	-3395
▁Sun	-3396
▁adm	-3397
▁esp	-3398
▁laun	-3399
▁nick	-3400
▁pupp	-3401
▁soda	-3402
itution	-3403
▁approx	-3404
▁starts	-3405
▁tables	-3406
▁carried	-3407
▁passeng	-3408
▁positive	-3409
▁practice	-3410
▁Billboard	-3411
▁President	-3412
ont	-3413
iant	-3414
ortun	-3415
▁Arab	-3416
▁Fred	-3417
▁dead	-3418
▁kept	-3419
▁ones	-3420
hester	-3421
▁lower	-3422
▁metal	-3423
▁newsp	-3424
▁Awards	-3425
▁budget	-3426
▁latter	-3427
▁limited	-3428
▁language	-3429
ylv	-3430
iter	-3431
lebr	-3432
▁Max	-3433
▁Coun	-3434
▁Fore	-3435
▁Lake	-3436
▁Many	-3437
▁army	-3438
▁heav	-3439
▁trib	-3440
▁Liver	-3441
▁board	-3442
▁daily	-3443
▁table	-3444
▁voice	-3445
▁metres	-3446
▁entered	-3447
▁becoming	-3448
▁cupcakes	-3449
▁buildings	-3450
▁destroyed	-3451
▁religious	-3452
onym	-3453
uing	-3454
▁ens	-3455
atory	-3456
▁Sing	-3457
▁cann	-3458
▁cows	-3459
idents	-3460
▁super	-3461
itation	-3462
▁Fowler	-3463
▁crayons	-3464
▁finally	-3465
▁structure	-3466
adm	-3467
▁ju	-3468
▁Art	-3469
▁Sal	-3470
▁Open	-3471
▁fans	-3472
▁sect	-3473
stitute	-3474
▁future	-3475
▁includes	-3476
▁occurred	-3477
▁surround	-3478
▁Liverpool	-3479
anta	-3480
▁Cam	-3481
▁imm	-3482
enced	-3483
▁Steve	-3484
▁sched	-3485
▁feature	-3486
▁herself	-3487
▁husband	-3488
▁independ	-3489
▁officers	-3490
▁sandwiches	-3491
uf	-3492
apo	-3493
iva	-3494
ula	-3495
vey	-3496
enes	-3497
▁sat	-3498
▁face	-3499
▁toys	-3500
ending	-3501
▁Somal	-3502
▁domin	-3503
▁equip	-3504
▁films	-3505
▁radio	-3506
▁garden	-3507
▁overall	-3508
▁attended	-3509
▁referred	-3510
▁Battalion	-3511
▁altogether	-3512
oph	-3513
▁cru	-3514
▁fir	-3515
▁inn	-3516
▁Just	-3517
▁shel	-3518
▁decor	-3519
▁types	-3520
▁better	-3521
▁create	-3522
▁reading	-3523
ification	-3524
▁Japanese	-3525
▁mountain	-3526
▁Hurricane	-3527
▁sometimes	-3528
▁kilometers	-3529
▁Association	-3530
▁Bre	-3531
▁Gro	-3532
▁cas	-3533
▁sea	-3534
ittee	-3535
▁Tour	-3536
▁Vict	-3537
▁names	-3538
▁staff	-3539
▁closed	-3540
▁listed	-3541
▁standard	-3542
▁paintings	-3543
cing	-3544
gely	-3545
▁Dar	-3546
▁ago	-3547
▁pet	-3548
third	-3549
▁math	-3550
▁plus	-3551
▁Braat	-3552
▁color	-3553
▁sixth	-3554
▁access	-3555
▁mostly	-3556
▁silver	-3557
▁changed	-3558
▁supported	-3559
aut	-3560
olk	-3561
▁Ag	-3562
mond	-3563
▁Andy	-3564
▁Foot	-3565
▁Wood	-3566
▁bowl	-3567
▁Texas	-3568
▁cases	-3569
▁Before	-3570
▁stamps	-3571
▁distrib	-3572
▁Atlantic	-3573
▁cathedral	-3574
II	-3575
anz	-3576
▁Met	-3577
▁Mil	-3578
▁tor	-3579
anies	-3580
ilies	-3581
venue	-3582
▁Jeff	-3583
▁Play	-3584
osition	-3585
▁Africa	-3586
▁athlet	-3587
▁celebr	-3588
▁except	-3589
▁conclud	-3590
▁constructed	-3591
▁Zh	-3592
anes	-3593
onse	-3594
▁Ver	-3595
▁bad	-3596
▁cub	-3597
▁row	-3598
▁sym	-3599
▁Film	-3600
▁Lord	-3601
▁Year	-3602
▁thus	-3603
▁adult	-3604
▁doing	-3605
▁tourn	-3606
▁whether	-3607
▁Virginia	-3608
ria	-3609
ging	-3610
▁Del	-3611
▁Joe	-3612
▁Out	-3613
orial	-3614
▁brief	-3615
▁chips	-3616
▁socks	-3617
▁teach	-3618
ologist	-3619
▁Another	-3620
▁classes	-3621
▁largely	-3622
▁maximum	-3623
▁prevent	-3624
▁discovered	-3625
▁respectively	-3626
▁approximately	-3627
dy	-3628
mel	-3629
arch	-3630
aval	-3631
cean	-3632
▁Ell	-3633
▁Jac	-3634
acity	-3635
iforn	-3636
▁Camp	-3637
▁Comb	-3638
▁Fort	-3639
▁drop	-3640
▁pizzas	-3641
▁awarded	-3642
▁meeting	-3643
▁administ	-3644
▁temperature	-3645
▁subsequently	-3646
AS	-3647
ady	-3648
ani	-3649
eph	-3650
ils	-3651
▁UK	-3652
oncé	-3653
▁hol	-3654
anced	-3655
odies	-3656
▁Rout	-3657
▁sett	-3658
▁webs	-3659
isters	-3660
▁split	-3661
▁things	-3662
▁Beyoncé	-3663
▁launched	-3664
▁individual	-3665
esb	-3666
ipp	-3667
arks	-3668
umed	-3669
▁Mal	-3670
▁Soc	-3671
riage	-3672
umber	-3673
▁Four	-3674
▁Hist	-3675
▁Lisa	-3676
▁earth	-3677
▁broken	-3678
▁salary	-3679
▁Northern	-3680
▁baseball	-3681
oud	-3682
▁BC	-3683
▁Up	-3684
▁Fle	-3685
▁Inn	-3686
▁sev	-3687
hroom	-3688
▁emer	-3689
▁jump	-3690
undred	-3691
▁apple	-3692
▁lyric	-3693
▁phone	-3694
▁raise	-3695
▁rooms	-3696
▁theme	-3697
▁traff	-3698
▁volume	-3699
▁offered	-3700
▁reduced	-3701
▁Californ	-3702
▁location	-3703
▁majority	-3704
▁supplies	-3705
▁Os	-3706
aine	-3707
fish	-3708
▁Mrs	-3709
▁dig	-3710
alled	-3711
ishes	-3712
▁Jess	-3713
▁Serv	-3714
▁beat	-3715
▁cere	-3716
▁circ	-3717
▁prem	-3718
ulated	-3719
▁Franc	-3720
▁flour	-3721
▁meant	-3722
▁Somers	-3723
▁annual	-3724
▁inters	-3725
▁screen	-3726
▁street	-3727
▁Brigade	-3728
▁clothes	-3729
▁planned	-3730
▁personal	-3731
ims	-3732
▁Fe	-3733
ties	-3734
▁Far	-3735
▁der	-3736
▁fit	-3737
▁sus	-3738
embly	-3739
▁Stud	-3740
anging	-3741
▁Jason	-3742
▁espec	-3743
▁grams	-3744
▁steps	-3745
▁defeat	-3746
▁object	-3747
▁traffic	-3748
▁writers	-3749
▁Somerset	-3750
▁controll	-3751
▁response	-3752
▁Braathens	-3753
▁especially	-3754
tha	-3755
uzz	-3756
anny	-3757
▁anc	-3758
ishop	-3759
▁Chic	-3760
▁idea	-3761
▁Towns	-3762
▁comes	-3763
▁media	-3764
▁stone	-3765
lection	-3766
▁Jewish	-3767
▁Council	-3768
▁dropped	-3769
▁scoring	-3770
▁approach	-3771
▁chickens	-3772
)=	-3773
isk	-3774
▁Ry	-3775
lers	-3776
▁bul	-3777
▁gar	-3778
▁mur	-3779
anded	-3780
erous	-3781
icket	-3782
▁Russ	-3783
▁Scot	-3784
▁dism	-3785
▁doub	-3786
▁dram	-3787
▁stay	-3788
▁forms	-3789
▁pants	-3790
▁helped	-3791
▁higher	-3792
▁Western	-3793
▁president	-3794
umn	-3795
ipal	-3796
oint	-3797
rown	-3798
sylv	-3799
▁Mer	-3800
▁enj	-3801
▁gum	-3802
▁lif	-3803
▁oil	-3804
▁uns	-3805
rance	-3806
▁acqu	-3807
▁ride	-3808
ements	-3809
tained	-3810
▁settle	-3811
▁writes	-3812
▁Pennsylv	-3813
▁capacity	-3814
▁pressure	-3815
▁Sur	-3816
▁ess	-3817
▁jum	-3818
▁opt	-3819
akapo	-3820
▁cell	-3821
▁rows	-3822
▁self	-3823
▁Route	-3824
▁catch	-3825
▁Battle	-3826
▁Victor	-3827
▁adding	-3828
▁equals	-3829
▁Carolina	-3830
▁decision	-3831
▁experien	-3832
▁intended	-3833
▁California	-3834
bon	-3835
▁Pri	-3836
▁ult	-3837
adium	-3838
inent	-3839
▁Oper	-3840
▁Tony	-3841
▁crow	-3842
▁Tessa	-3843
▁stars	-3844
▁veget	-3845
▁fruits	-3846
▁gained	-3847
▁health	-3848
▁likely	-3849
▁bananas	-3850
▁workers	-3851
▁painting	-3852
▁positions	-3853
▁depression	-3854
kin	-3855
like	-3856
ours	-3857
arent	-3858
ennis	-3859
intin	-3860
orter	-3861
▁Adam	-3862
▁Blue	-3863
▁Marc	-3864
▁kick	-3865
▁Jerry	-3866
▁compl	-3867
▁sugar	-3868
▁Second	-3869
▁gallon	-3870
▁orange	-3871
▁reason	-3872
▁slight	-3873
▁unable	-3874
▁quickly	-3875
▁request	-3876
▁assigned	-3877
▁audience	-3878
▁mushroom	-3879
▁purchase	-3880
▁er	-3881
eyer	-3882
pire	-3883
▁Cat	-3884
▁Tot	-3885
▁yet	-3886
▁girl	-3887
▁plot	-3888
▁unit	-3889
change	-3890
▁breed	-3891
▁frequ	-3892
▁grass	-3893
▁shown	-3894
▁issued	-3895
▁Chicago	-3896
▁provide	-3897
▁younger	-3898
▁Regiment	-3899
▁quarters	-3900
▁employees	-3901
ka	-3902
▁Jon	-3903
▁jud	-3904
▁thr	-3905
▁iron	-3906
admium	-3907
illery	-3908
▁Sarah	-3909
▁hands	-3910
▁Tintin	-3911
▁floors	-3912
▁concern	-3913
▁library	-3914
▁musical	-3915
▁require	-3916
▁continue	-3917
▁critical	-3918
▁document	-3919
▁influence	-3920
▁something	-3921
oe	-3922
iny	-3923
atre	-3924
gers	-3925
hold	-3926
▁Ali	-3927
▁Los	-3928
▁Mog	-3929
▁dom	-3930
▁fix	-3931
▁drum	-3932
nesota	-3933
▁Enter	-3934
▁Maria	-3935
▁adults	-3936
▁losing	-3937
▁marked	-3938
▁trying	-3939
▁Because	-3940
▁equally	-3941
▁hundred	-3942
▁related	-3943
▁science	-3944
▁Football	-3945
▁Townsend	-3946
▁captured	-3947
▁services	-3948
▁tomatoes	-3949
▁Minnesota	-3950
▁commented	-3951
TV	-3952
erat	-3953
ican	-3954
▁amb	-3955
▁fee	-3956
▁sun	-3957
▁via	-3958
▁fail	-3959
▁spir	-3960
▁clean	-3961
▁marks	-3962
▁natural	-3963
▁serious	-3964
▁consider	-3965
▁purchased	-3966
▁Pennsylvania	-3967
ups	-3968
▁Its	-3969
▁fed	-3970
athus	-3971
epted	-3972
▁Club	-3973
▁elev	-3974
▁Under	-3975
▁cause	-3976
▁check	-3977
▁Series	-3978
▁ending	-3979
▁figures	-3980
▁managed	-3981
▁subject	-3982
▁presented	-3983
▁traditional	-3984
-$	-3985
▁Kn	-3986
ergy	-3987
unic	-3988
▁Sol	-3989
▁bid	-3990
rical	-3991
▁Acad	-3992
▁Arch	-3993
▁Greg	-3994
▁Long	-3995
▁bath	-3996
▁prin	-3997
▁pull	-3998
▁your	-3999
▁beans	-4000
▁saves	-4001
▁tower	-4002
▁dinner	-4003
▁drives	-4004
▁lyrics	-4005
▁nature	-4006
▁attract	-4007
▁driving	-4008
▁primary	-4009
▁savings	-4010
▁selected	-4011
▁suffered	-4012
▁performances	-4013
abit	-4014
ovic	-4015
▁Kat	-4016
▁Mat	-4017
▁Sch	-4018
▁Wal	-4019
rison	-4020
tered	-4021
▁Hait	-4022
▁bomb	-4023
▁chall	-4024
▁eaten	-4025
▁lived	-4026
▁shirt	-4027
▁accomp	-4028
▁artist	-4029
▁financ	-4030
▁normal	-4031
▁adopted	-4032
▁leaders	-4033
▁directly	-4034
ios	-4035
wen	-4036
inal	-4037
ware	-4038
▁Sea	-4039
▁asp	-4040
▁tip	-4041
izing	-4042
▁Land	-4043
▁Nesb	-4044
▁Yank	-4045
▁Youn	-4046
▁hero	-4047
▁inch	-4048
▁pict	-4049
▁pies	-4050
▁weap	-4051
▁seats	-4052
▁xenon	-4053
atively	-4054
▁cheese	-4055
▁recomm	-4056
▁Through	-4057
▁protest	-4058
▁Catholic	-4059
▁earnings	-4060
▁broadcast	-4061
▁conducted	-4062
▁everything	-4063
nh	-4064
ify	-4065
▁Du	-4066
▁lb	-4067
arsh	-4068
asts	-4069
▁Ram	-4070
▁Wee	-4071
ellig	-4072
uries	-4073
▁Zhou	-4074
▁nort	-4075
▁rare	-4076
▁rent	-4077
▁wins	-4078
atives	-4079
▁Earth	-4080
▁finds	-4081
▁necess	-4082
▁relief	-4083
▁wheels	-4084
▁Ottoman	-4085
▁counter	-4086
ena	-4087
rel	-4088
▁Av	-4089
ency	-4090
▁Jay	-4091
▁Mel	-4092
imate	-4093
orrow	-4094
▁Cour	-4095
▁Live	-4096
▁prec	-4097
▁tons	-4098
▁Meyer	-4099
▁Mogad	-4100
▁Queen	-4101
▁incor	-4102
▁photos	-4103
▁ranked	-4104
▁singer	-4105
▁source	-4106
quarters	-4107
▁Nesbitt	-4108
▁culture	-4109
▁effects	-4110
▁evening	-4111
▁parking	-4112
▁private	-4113
▁soldiers	-4114
▁associated	-4115
ato	-4116
iro	-4117
▁SR	-4118
alty	-4119
opes	-4120
ucle	-4121
▁Eva	-4122
▁env	-4123
▁pan	-4124
▁anti	-4125
▁dark	-4126
▁page	-4127
icated	-4128
▁Brian	-4129
ription	-4130
▁intern	-4131
▁really	-4132
▁Central	-4133
▁election	-4134
ex	-4135
het	-4136
rey	-4137
▁CD	-4138
cend	-4139
ears	-4140
▁Ven	-4141
▁lay	-4142
▁shr	-4143
ading	-4144
itive	-4145
▁Anth	-4146
▁Barb	-4147
▁Sarn	-4148
▁bott	-4149
▁path	-4150
▁susp	-4151
ective	-4152
▁noteb	-4153
▁sleep	-4154
▁spots	-4155
▁copies	-4156
▁dollar	-4157
▁status	-4158
▁greater	-4159
▁greatest	-4160
▁strength	-4161
▁attempted	-4162
▁passengers	-4163
▁appearances	-4164
ida	-4165
oul	-4166
uce	-4167
▁ge	-4168
iami	-4169
▁Ill	-4170
▁Res	-4171
▁Six	-4172
▁our	-4173
▁pil	-4174
aging	-4175
anish	-4176
imony	-4177
▁Juan	-4178
▁Mill	-4179
▁rect	-4180
▁Croat	-4181
▁Miami	-4182
▁bound	-4183
▁wound	-4184
▁Nathan	-4185
▁Meyerbe	-4186
▁allowing	-4187
▁proposed	-4188
▁information	-4189
ais	-4190
oug	-4191
umpt	-4192
uses	-4193
▁Luc	-4194
▁Pit	-4195
▁boy	-4196
▁dry	-4197
month	-4198
▁Card	-4199
▁Isab	-4200
▁Lock	-4201
▁exam	-4202
▁send	-4203
▁stra	-4204
▁Helms	-4205
▁Sarnia	-4206
▁confir	-4207
▁expected	-4208
▁Meyerbeer	-4209
▁countries	-4210
▁strawberries	-4211
erc	-4212
key	-4213
ora	-4214
rig	-4215
▁AI	-4216
alys	-4217
▁Hal	-4218
▁bal	-4219
▁rhy	-4220
abama	-4221
ander	-4222
estic	-4223
iders	-4224
isher	-4225
order	-4226
▁buck	-4227
ecting	-4228
▁Games	-4229
▁Smith	-4230
▁Vietn	-4231
▁burns	-4232
▁enjoy	-4233
▁homes	-4234
▁centre	-4235
▁peaked	-4236
▁severe	-4237
▁showed	-4238
▁African	-4239
▁Alabama	-4240
▁Italian	-4241
▁Olympic	-4242
▁Mogadish	-4243
▁fighting	-4244
ado	-4245
arp	-4246
bed	-4247
rog	-4248
▁Ly	-4249
▁Fey	-4250
▁Lit	-4251
▁Oda	-4252
▁Ros	-4253
▁wed	-4254
antage	-4255
▁Hawai	-4256
▁Janet	-4257
▁Sever	-4258
▁Today	-4259
▁colon	-4260
▁horse	-4261
▁rapid	-4262
▁vocal	-4263
▁couple	-4264
▁issues	-4265
▁kakapo	-4266
▁levels	-4267
▁reject	-4268
▁scenes	-4269
▁Johnson	-4270
▁Spanish	-4271
▁becomes	-4272
▁officer	-4273
▁protein	-4274
▁serving	-4275
▁studies	-4276
▁surface	-4277
▁watched	-4278
▁website	-4279
▁weekend	-4280
▁attempts	-4281
▁composed	-4282
▁division	-4283
▁equation	-4284
▁extended	-4285
▁families	-4286
▁question	-4287
▁Mogadishu	-4288
▁commander	-4289
▁Department	-4290
▁activities	-4291
▁performing	-4292
isl	-4293
nie	-4294
▁Cra	-4295
▁Jam	-4296
icted	-4297
inkel	-4298
lands	-4299
▁coup	-4300
▁Odaen	-4301
▁guest	-4302
▁juice	-4303
▁Center	-4304
▁shells	-4305
▁advance	-4306
▁planted	-4307
▁hospital	-4308
▁vehicles	-4309
▁companies	-4310
▁contemporary	-4311
MS	-4312
ca	-4313
aped	-4314
iece	-4315
roll	-4316
▁Add	-4317
▁say	-4318
▁Both	-4319
▁adds	-4320
▁gift	-4321
▁meat	-4322
▁rear	-4323
▁sail	-4324
▁Green	-4325
▁Innis	-4326
▁chair	-4327
▁draft	-4328
▁excav	-4329
▁exist	-4330
▁graph	-4331
▁Joseph	-4332
▁search	-4333
▁shared	-4334
ervation	-4335
▁abandon	-4336
▁inspired	-4337
▁Odaenathus	-4338
han	-4339
rid	-4340
aked	-4341
bury	-4342
edar	-4343
erve	-4344
iced	-4345
▁ver	-4346
enses	-4347
▁Kenn	-4348
▁chem	-4349
▁hats	-4350
▁rule	-4351
▁says	-4352
▁Apple	-4353
▁Total	-4354
▁acres	-4355
▁model	-4356
▁stock	-4357
▁Finkel	-4358
▁accept	-4359
▁albums	-4360
▁calling	-4361
▁visited	-4362
▁producer	-4363
▁revealed	-4364
▁Finkelstein	-4365
St	-4366
bl	-4367
gie	-4368
raf	-4369
▁AM	-4370
gent	-4371
iano	-4372
izes	-4373
ooks	-4374
orks	-4375
▁Alt	-4376
▁Sil	-4377
▁kit	-4378
ushed	-4379
▁Conf	-4380
▁Horn	-4381
▁Ryan	-4382
▁caps	-4383
▁pref	-4384
▁purs	-4385
▁puzz	-4386
▁Billy	-4387
▁broke	-4388
▁dolls	-4389
▁serve	-4390
▁truck	-4391
eratops	-4392
onymous	-4393
▁Museum	-4394
▁bridge	-4395
▁highly	-4396
▁method	-4397
▁chicken	-4398
▁cyclone	-4399
▁letters	-4400
▁accepted	-4401
▁entrance	-4402
▁industry	-4403
▁presence	-4404
▁separate	-4405
▁featuring	-4406
▁residents	-4407
▁immediately	-4408
▁responsible	-4409
ala	-4410
oys	-4411
▁tub	-4412
▁Wild	-4413
▁jack	-4414
▁purp	-4415
▁talk	-4416
▁Latin	-4417
▁apart	-4418
▁ducks	-4419
▁offer	-4420
▁princ	-4421
▁thick	-4422
▁trips	-4423
▁votes	-4424
▁county	-4425
▁torped	-4426
▁Service	-4427
▁complex	-4428
▁respond	-4429
▁Scotland	-4430
▁actually	-4431
▁marriage	-4432
▁powerful	-4433
▁operation	-4434
AFE	-4435
oms	-4436
▁Om	-4437
acts	-4438
rate	-4439
▁cam	-4440
▁nin	-4441
ening	-4442
▁Cast	-4443
▁SAFE	-4444
▁emph	-4445
▁fuel	-4446
▁resc	-4447
▁sust	-4448
▁Harry	-4449
▁ratio	-4450
▁defend	-4451
▁plates	-4452
▁walked	-4453
▁Academy	-4454
▁Angeles	-4455
▁females	-4456
▁Squadron	-4457
▁artillery	-4458
▁territory	-4459
ev	-4460
aha	-4461
ias	-4462
iled	-4463
rick	-4464
utch	-4465
▁Dam	-4466
▁egg	-4467
▁lov	-4468
astic	-4469
white	-4470
▁Bowl	-4471
▁rein	-4472
▁Shiva	-4473
▁Young	-4474
▁below	-4475
▁image	-4476
▁instr	-4477
▁lives	-4478
estival	-4479
▁Little	-4480
▁coming	-4481
▁Germany	-4482
▁appears	-4483
▁attacks	-4484
▁conflic	-4485
▁Tropical	-4486
▁favorite	-4487
▁straight	-4488
▁concluded	-4489
▁contained	-4490
▁completely	-4491
gn	-4492
gu	-4493
car	-4494
▁Po	-4495
cles	-4496
etic	-4497
kare	-4498
rial	-4499
umes	-4500
▁Yue	-4501
▁mel	-4502
apers	-4503
force	-4504
uated	-4505
▁Cole	-4506
▁didn	-4507
▁Storm	-4508
▁neckl	-4509
▁roles	-4510
▁Martin	-4511
▁active	-4512
▁animal	-4513
▁archit	-4514
▁struck	-4515
▁tracks	-4516
▁transl	-4517
▁Several	-4518
▁getting	-4519
▁heavily	-4520
▁stating	-4521
▁attacked	-4522
▁interact	-4523
▁planning	-4524
▁resulted	-4525
▁advantage	-4526
▁conditions	-4527
hem	-4528
rugg	-4529
▁Cle	-4530
▁Kar	-4531
▁ang	-4532
▁fat	-4533
▁pun	-4534
lines	-4535
▁Manc	-4536
▁data	-4537
▁fully	-4538
▁oppon	-4539
▁owned	-4540
▁upper	-4541
essions	-4542
▁begins	-4543
▁income	-4544
▁medium	-4545
▁elected	-4546
▁passing	-4547
▁Assembly	-4548
▁potatoes	-4549
▁contributed	-4550
yr	-4551
unn	-4552
▁Bu	-4553
▁oz	-4554
oper	-4555
▁Rad	-4556
▁ends	-4557
▁owns	-4558
▁snow	-4559
▁Civil	-4560
▁Horse	-4561
▁Mario	-4562
▁Hamels	-4563
▁emphas	-4564
▁native	-4565
▁scient	-4566
▁target	-4567
▁Finally	-4568
▁Highway	-4569
▁distinct	-4570
▁earliest	-4571
▁scholars	-4572
▁education	-4573
▁mentioned	-4574
▁tournament	-4575
ola	-4576
▁ml	-4577
ibly	-4578
▁Fur	-4579
▁Kim	-4580
▁Ray	-4581
▁dad	-4582
▁fox	-4583
annah	-4584
ighth	-4585
▁Djed	-4586
▁Last	-4587
▁Stan	-4588
▁flag	-4589
▁fres	-4590
▁plat	-4591
▁wild	-4592
▁Wales	-4593
▁exerc	-4594
▁reads	-4595
▁Columb	-4596
▁disapp	-4597
▁nearby	-4598
▁passes	-4599
▁strugg	-4600
▁titles	-4601
standing	-4602
▁ability	-4603
▁improve	-4604
▁rainfall	-4605
▁slightly	-4606
▁remainder	-4607
RA	-4608
ef	-4609
▁i	-4610
asp	-4611
ipe	-4612
▁ut	-4613
ikes	-4614
▁Kir	-4615
▁try	-4616
▁Like	-4617
▁Wash	-4618
▁agre	-4619
▁appl	-4620
▁bene	-4621
▁cool	-4622
▁true	-4623
ceeded	-4624
▁Fleet	-4625
▁Keats	-4626
▁actor	-4627
▁basis	-4628
▁Illino	-4629
▁actions	-4630
▁artists	-4631
▁cadmium	-4632
▁council	-4633
▁schedul	-4634
▁Djedkare	-4635
▁brothers	-4636
▁investig	-4637
▁security	-4638
▁alongside	-4639
▁apartment	-4640
▁expensive	-4641
▁consecutive	-4642
▁multiplying	-4643
▁represented	-4644
ym	-4645
▁Kr	-4646
greg	-4647
inem	-4648
▁Bas	-4649
▁Bir	-4650
▁Rih	-4651
▁Rog	-4652
▁roy	-4653
▁sen	-4654
ocked	-4655
▁Once	-4656
▁doct	-4657
▁grew	-4658
▁hall	-4659
▁symb	-4660
icient	-4661
▁Paris	-4662
▁Trans	-4663
▁crowd	-4664
▁males	-4665
▁nucle	-4666
▁Daniel	-4667
▁Forest	-4668
▁aftern	-4669
▁bottom	-4670
▁casual	-4671
irection	-4672
▁Rihanna	-4673
▁quality	-4674
▁flooding	-4675
▁opportun	-4676
▁situation	-4677
▁controvers	-4678
FA	-4679
outs	-4680
writ	-4681
▁Ari	-4682
uting	-4683
▁perm	-4684
▁Hence	-4685
▁Night	-4686
▁owner	-4687
▁McCall	-4688
▁stones	-4689
▁weaken	-4690
▁efforts	-4691
▁glasses	-4692
▁measure	-4693
▁pattern	-4694
▁declared	-4695
▁numerous	-4696
▁typically	-4697
ocr	-4698
ols	-4699
▁Lo	-4700
adel	-4701
chen	-4702
kins	-4703
▁Rev	-4704
▁bon	-4705
▁pie	-4706
▁sib	-4707
echan	-4708
▁Kent	-4709
▁Tenn	-4710
▁eyes	-4711
▁fair	-4712
▁lawn	-4713
▁ring	-4714
antasy	-4715
ograph	-4716
▁Cross	-4717
▁Spain	-4718
▁dance	-4719
▁exact	-4720
▁altern	-4721
▁nation	-4722
▁spaces	-4723
▁toward	-4724
▁assault	-4725
▁invited	-4726
▁refused	-4727
▁viewers	-4728
▁activity	-4729
▁receives	-4730
▁continues	-4731
▁officials	-4732
▁organized	-4733
▁Manchester	-4734
▁authorities	-4735
▁championship	-4736
Le	-4737
ode	-4738
reg	-4739
▁Ve	-4740
emic	-4741
imet	-4742
orus	-4743
▁Dub	-4744
known	-4745
lying	-4746
▁repe	-4747
▁Colle	-4748
▁Inter	-4749
▁armed	-4750
▁beach	-4751
▁climb	-4752
▁Middle	-4753
▁Torres	-4754
▁attrib	-4755
▁claims	-4756
▁movies	-4757
▁recent	-4758
▁triple	-4759
▁correct	-4760
▁looking	-4761
▁Constant	-4762
▁athletes	-4763
▁standing	-4764
▁Washington	-4765
▁containing	-4766
rea	-4767
ura	-4768
rawn	-4769
▁Ken	-4770
▁Lar	-4771
▁Tam	-4772
▁hom	-4773
ledge	-4774
overy	-4775
▁Hear	-4776
▁Jill	-4777
▁Rick	-4778
▁boat	-4779
▁cuts	-4780
▁emot	-4781
▁folk	-4782
▁link	-4783
▁roof	-4784
▁spot	-4785
istics	-4786
▁reign	-4787
▁tried	-4788
▁Empire	-4789
▁arrest	-4790
▁farmer	-4791
▁places	-4792
▁waters	-4793
▁Anthony	-4794
▁candles	-4795
▁achieved	-4796
▁afternoon	-4797
▁individuals	-4798
azz	-4799
inn	-4800
rip	-4801
rots	-4802
unte	-4803
▁Sir	-4804
▁bow	-4805
▁Dest	-4806
▁qual	-4807
▁wave	-4808
▁Class	-4809
▁Party	-4810
▁Simps	-4811
▁artic	-4812
▁pitch	-4813
▁sense	-4814
▁strip	-4815
ication	-4816
▁Though	-4817
▁cannot	-4818
▁effort	-4819
▁legisl	-4820
▁sports	-4821
▁vocals	-4822
▁widely	-4823
▁growing	-4824
▁travels	-4825
▁variety	-4826
▁domestic	-4827
▁proteins	-4828
▁sentence	-4829
cts	-4830
▁Us	-4831
ette	-4832
iate	-4833
igan	-4834
▁Pop	-4835
▁Tur	-4836
▁ple	-4837
istry	-4838
▁Week	-4839
▁edge	-4840
▁raid	-4841
▁swim	-4842
▁Omaha	-4843
▁blood	-4844
▁exhib	-4845
▁grade	-4846
▁pills	-4847
▁Prince	-4848
▁castle	-4849
▁master	-4850
▁winter	-4851
▁flights	-4852
▁journey	-4853
▁singles	-4854
▁wedding	-4855
▁describes	-4856
▁expressed	-4857
▁transferred	-4858
▁organization	-4859
AA	-4860
▁du	-4861
amin	-4862
helm	-4863
ifts	-4864
lyss	-4865
▁Sov	-4866
▁era	-4867
▁ham	-4868
▁hun	-4869
herry	-4870
ivery	-4871
▁Josh	-4872
▁fold	-4873
▁refe	-4874
▁sees	-4875
▁wing	-4876
rences	-4877
▁depth	-4878
▁sport	-4879
▁tiles	-4880
▁Direct	-4881
▁depart	-4882
▁downlo	-4883
▁weekly	-4884
▁Captain	-4885
▁Nations	-4886
▁charged	-4887
▁defense	-4888
▁journal	-4889
▁seventh	-4890
▁servings	-4891
▁architect	-4892
▁financial	-4893
▁newspaper	-4894
▁notebooks	-4895
▁promotion	-4896
▁Government	-4897
iot	-4898
set	-4899
iron	-4900
ogue	-4901
uous	-4902
wide	-4903
▁Sou	-4904
▁gam	-4905
▁rac	-4906
ental	-4907
▁Prem	-4908
▁thir	-4909
▁vess	-4910
ushing	-4911
▁Court	-4912
▁Jacob	-4913
▁hired	-4914
▁acting	-4915
▁mechan	-4916
▁secret	-4917
▁trucks	-4918
▁college	-4919
▁perfect	-4920
▁Egyptian	-4921
▁cultural	-4922
▁electric	-4923
▁incorpor	-4924
▁property	-4925
▁direction	-4926
▁equipment	-4927
▁resulting	-4928
▁neighborhood	-4929
ype	-4930
mark	-4931
onna	-4932
▁Bru	-4933
▁Fri	-4934
balls	-4935
inals	-4936
▁Five	-4937
▁Mass	-4938
▁gain	-4939
▁neut	-4940
▁pink	-4941
▁Early	-4942
▁flying	-4943
▁museum	-4944
▁sexual	-4945
▁founded	-4946
▁freeway	-4947
▁rectang	-4948
▁Illinois	-4949
▁intellig	-4950
▁attention	-4951
▁returning	-4952
▁officially	-4953
ya	-4954
aks	-4955
▁Bh	-4956
▁sa	-4957
osen	-4958
phia	-4959
rete	-4960
▁Inf	-4961
▁Sum	-4962
▁aid	-4963
▁pep	-4964
▁sac	-4965
while	-4966
▁Jere	-4967
▁Kore	-4968
▁ages	-4969
▁bike	-4970
▁onto	-4971
▁rose	-4972
alysis	-4973
urance	-4974
▁Child	-4975
▁Danny	-4976
▁Kevin	-4977
▁Phill	-4978
▁extre	-4979
▁legal	-4980
isation	-4981
plement	-4982
▁Argent	-4983
▁candid	-4984
▁murder	-4985
▁wooden	-4986
adelphia	-4987
▁Airport	-4988
▁actress	-4989
▁contest	-4990
▁deliver	-4991
▁demonst	-4992
▁donated	-4993
▁granted	-4994
▁watching	-4995
▁institution	-4996
VD	-4997
▁NC	-4998
▁fa	-4999
okes	-5000
▁Def	-5001
▁Fam	-5002
▁Fel	-5003
▁Hib	-5004
▁Jup	-5005
▁inh	-5006
▁rom	-5007
▁saf	-5008
aters	-5009
▁Bart	-5010
▁else	-5011
▁stre	-5012
▁suit	-5013
▁brace	-5014
▁chief	-5015
▁sites	-5016
▁rights	-5017
▁window	-5018
▁College	-5019
▁deities	-5020
▁express	-5021
▁factory	-5022
▁finding	-5023
▁harvest	-5024
▁holding	-5025
▁walking	-5026
▁movement	-5027
▁prepared	-5028
▁ultimately	-5029
BA	-5030
loy	-5031
▁Ca	-5032
▁Sn	-5033
▁Bur	-5034
▁Mic	-5035
chers	-5036
iring	-5037
▁Anna	-5038
▁Chel	-5039
▁Spec	-5040
▁Swed	-5041
▁lake	-5042
▁seem	-5043
ivered	-5044
ocated	-5045
▁Corps	-5046
▁Haven	-5047
▁ahead	-5048
▁hotel	-5049
▁meals	-5050
anwhile	-5051
▁advert	-5052
▁bodies	-5053
▁chosen	-5054
▁mainly	-5055
▁paying	-5056
▁spread	-5057
▁accident	-5058
▁delivery	-5059
▁everyone	-5060
▁observed	-5061
▁authority	-5062
ati	-5063
awa	-5064
box	-5065
can	-5066
oor	-5067
▁Ur	-5068
iana	-5069
▁Boy	-5070
▁unc	-5071
itual	-5072
oured	-5073
owing	-5074
▁Home	-5075
▁News	-5076
▁Prot	-5077
ension	-5078
▁argued	-5079
▁injury	-5080
▁spring	-5081
▁unique	-5082
▁Jupiter	-5083
▁Mounted	-5084
▁Wilhelm	-5085
▁edition	-5086
▁mission	-5087
▁product	-5088
▁puppies	-5089
▁society	-5090
▁wearing	-5091
▁windows	-5092
▁Williams	-5093
▁contrast	-5094
▁delivered	-5095
▁offensive	-5096
▁primarily	-5097
▁background	-5098
▁management	-5099
ply	-5100
▁Ul	-5101
▁deg	-5102
▁hap	-5103
eller	-5104
inity	-5105
▁Eliz	-5106
▁Lind	-5107
▁cash	-5108
▁door	-5109
▁pean	-5110
▁scul	-5111
angers	-5112
▁Colon	-5113
▁Jimmy	-5114
Station	-5115
▁Athlet	-5116
▁Barrow	-5117
▁comedy	-5118
▁contact	-5119
▁foreign	-5120
▁nickels	-5121
▁progress	-5122
▁Applewhite	-5123
▁influenced	-5124
▁PlayStation	-5125
▁Philadelphia	-5126
ona	-5127
sea	-5128
win	-5129
agan	-5130
illo	-5131
▁Abu	-5132
▁Aer	-5133
▁DVD	-5134
▁Rod	-5135
▁syn	-5136
▁ven	-5137
arian	-5138
emble	-5139
ented	-5140
▁Post	-5141
▁lose	-5142
itting	-5143
▁Jenny	-5144
▁Louis	-5145
▁Major	-5146
▁Simon	-5147
▁dough	-5148
▁drove	-5149
▁enemy	-5150
▁fired	-5151
▁overs	-5152
▁thous	-5153
▁Martha	-5154
▁Between	-5155
▁battery	-5156
▁reports	-5157
▁shortly	-5158
▁affected	-5159
▁recently	-5160
▁rejected	-5161
▁explained	-5162
▁potential	-5163
aws	-5164
ety	-5165
met	-5166
▁NH	-5167
alle	-5168
▁hen	-5169
▁Marl	-5170
▁bats	-5171
▁laid	-5172
▁Boise	-5173
▁Evita	-5174
▁Final	-5175
▁comic	-5176
▁lands	-5177
▁plane	-5178
▁rough	-5179
▁turns	-5180
▁Valley	-5181
▁flower	-5182
▁impact	-5183
▁letter	-5184
▁narrow	-5185
▁Records	-5186
▁debuted	-5187
▁fiction	-5188
▁follows	-5189
▁brownies	-5190
▁produces	-5191
▁siblings	-5192
▁withdraw	-5193
▁consisted	-5194
▁highlight	-5195
▁northeast	-5196
▁scheduled	-5197
bit	-5198
aret	-5199
elle	-5200
hips	-5201
road	-5202
ulls	-5203
▁HMS	-5204
▁Jes	-5205
▁Leg	-5206
▁Sen	-5207
▁toy	-5208
annel	-5209
ockey	-5210
overs	-5211
▁Cont	-5212
▁Flor	-5213
▁Only	-5214
▁Rhod	-5215
▁bass	-5216
▁cert	-5217
▁opin	-5218
▁pine	-5219
▁rabb	-5220
▁semi	-5221
▁soft	-5222
▁Force	-5223
▁Group	-5224
▁frame	-5225
▁label	-5226
▁piano	-5227
▁royal	-5228
▁sheep	-5229
▁lasted	-5230
▁online	-5231
▁script	-5232
▁strike	-5233
▁Charlie	-5234
▁balance	-5235
▁network	-5236
▁singing	-5237
▁Isabella	-5238
▁Southern	-5239
▁collabor	-5240
▁shopping	-5241
▁condition	-5242
▁followers	-5243
▁Altogether	-5244
▁$.	-5245
amal	-5246
bour	-5247
king	-5248
▁Dem	-5249
▁mis	-5250
ersey	-5251
ieval	-5252
ufact	-5253
▁Jake	-5254
▁Vill	-5255
▁flat	-5256
▁puts	-5257
▁wait	-5258
▁weak	-5259
▁chose	-5260
▁focus	-5261
▁lemon	-5262
▁shots	-5263
▁stuff	-5264
▁tells	-5265
▁Simone	-5266
▁arrang	-5267
▁cougar	-5268
▁covers	-5269
▁chapter	-5270
▁deposit	-5271
▁portion	-5272
▁transfer	-5273
▁Entertain	-5274
▁dedicated	-5275
▁intensity	-5276
▁prominent	-5277
▁reference	-5278
▁sustained	-5279
▁criticized	-5280
▁historical	-5281
ero	-5282
ager	-5283
appy	-5284
gian	-5285
inus	-5286
▁Big	-5287
▁Cas	-5288
▁Gir	-5289
▁Ron	-5290
▁Ter	-5291
▁seg	-5292
▁ton	-5293
union	-5294
▁Bert	-5295
▁Kyle	-5296
▁Turn	-5297
▁drew	-5298
▁plum	-5299
▁solo	-5300
▁Crazy	-5301
▁behav	-5302
▁devot	-5303
▁enter	-5304
▁fresh	-5305
agement	-5306
oration	-5307
▁Edward	-5308
▁belong	-5309
▁cities	-5310
▁conver	-5311
▁perman	-5312
▁premie	-5313
▁themes	-5314
ironment	-5315
▁causing	-5316
▁concent	-5317
▁concept	-5318
▁defence	-5319
▁dismiss	-5320
▁strengt	-5321
▁compound	-5322
▁physical	-5323
▁defensive	-5324
▁casualties	-5325
ds	-5326
sy	-5327
cks	-5328
▁Ox	-5329
▁ow	-5330
foot	-5331
play	-5332
▁Due	-5333
▁Sav	-5334
▁adj	-5335
▁dut	-5336
claim	-5337
▁Cons	-5338
▁Carla	-5339
▁Short	-5340
▁alone	-5341
▁opera	-5342
▁taxes	-5343
▁teeth	-5344
▁Chains	-5345
▁Samuel	-5346
▁border	-5347
▁encour	-5348
▁happen	-5349
▁interp	-5350
▁observ	-5351
▁simply	-5352
▁Florida	-5353
▁Society	-5354
▁ancient	-5355
▁content	-5356
▁federal	-5357
▁missing	-5358
▁torpedo	-5359
▁Anderson	-5360
▁Congress	-5361
▁landfall	-5362
▁confirmed	-5363
▁executive	-5364
▁producers	-5365
▁independent	-5366
aph	-5367
mod	-5368
ros	-5369
sen	-5370
▁Ho	-5371
mony	-5372
rong	-5373
▁Den	-5374
▁Net	-5375
▁fab	-5376
▁rob	-5377
▁wit	-5378
arked	-5379
gency	-5380
ichol	-5381
inger	-5382
water	-5383
▁Cold	-5384
▁Gord	-5385
▁Hind	-5386
▁Leon	-5387
▁Sand	-5388
▁acad	-5389
▁news	-5390
▁sout	-5391
▁wash	-5392
▁Randy	-5393
▁boats	-5394
▁honor	-5395
▁picks	-5396
▁shape	-5397
▁trial	-5398
▁awards	-5399
▁combat	-5400
▁prison	-5401
▁rounds	-5402
▁senior	-5403
▁Premier	-5404
▁believe	-5405
▁sources	-5406
▁Independ	-5407
▁creating	-5408
▁customer	-5409
▁identified	-5410
▁represents	-5411
hew	-5412
sey	-5413
aire	-5414
aser	-5415
avel	-5416
▁BBC	-5417
▁Bor	-5418
▁End	-5419
▁Hum	-5420
▁Jud	-5421
▁Mur	-5422
▁cab	-5423
▁hal	-5424
▁unp	-5425
eline	-5426
▁Dist	-5427
▁Doug	-5428
▁Hart	-5429
▁Lady	-5430
▁arms	-5431
▁frag	-5432
▁insc	-5433
ackers	-5434
ancing	-5435
asters	-5436
shirts	-5437
urches	-5438
▁Domin	-5439
▁Ocean	-5440
▁Susan	-5441
▁clubs	-5442
▁dated	-5443
▁heart	-5444
▁threw	-5445
acement	-5446
borough	-5447
ivision	-5448
▁Indust	-5449
▁humans	-5450
▁images	-5451
▁planet	-5452
▁rating	-5453
▁sheets	-5454
esterday	-5455
ologists	-5456
▁soundtr	-5457
▁systems	-5458
▁wounded	-5459
▁Mountain	-5460
▁Scottish	-5461
▁bringing	-5462
▁cleaning	-5463
▁expenses	-5464
▁reaching	-5465
▁structures	-5466
▁surrounding	-5467
▁competitions	-5468
%.	-5469
TC	-5470
amy	-5471
ila	-5472
rol	-5473
▁FI	-5474
▁Iv	-5475
rupt	-5476
▁Ode	-5477
▁bit	-5478
▁hop	-5479
▁Chap	-5480
▁coal	-5481
▁pets	-5482
▁rise	-5483
▁terr	-5484
athers	-5485
enture	-5486
▁MacLe	-5487
▁flank	-5488
▁thing	-5489
▁donuts	-5490
▁famous	-5491
▁missed	-5492
▁oldest	-5493
▁soccer	-5494
ographer	-5495
▁medical	-5496
▁mounted	-5497
▁pitched	-5498
▁weapons	-5499
▁advanced	-5500
▁messages	-5501
▁normally	-5502
▁occasion	-5503
▁occupied	-5504
▁Institute	-5505
▁committee	-5506
▁knowledge	-5507
▁necessary	-5508
▁receiving	-5509
▁designated	-5510
cel	-5511
gal	-5512
mes	-5513
mir	-5514
rum	-5515
ubs	-5516
▁Ka	-5517
fort	-5518
quar	-5519
▁Cre	-5520
▁Lew	-5521
fully	-5522
▁Burn	-5523
▁Norm	-5524
▁Aston	-5525
▁Emily	-5526
▁Guard	-5527
▁Qedar	-5528
▁avoid	-5529
▁bears	-5530
▁motor	-5531
▁peace	-5532
▁tooth	-5533
▁actors	-5534
▁choice	-5535
▁eating	-5536
▁offers	-5537
▁reform	-5538
▁serves	-5539
▁tennis	-5540
▁winner	-5541
▁Further	-5542
▁Hornung	-5543
▁achieve	-5544
▁airport	-5545
▁convers	-5546
▁killing	-5547
▁univers	-5548
▁weather	-5549
▁Michigan	-5550
▁concrete	-5551
▁consists	-5552
▁economic	-5553
▁multiple	-5554
▁operated	-5555
▁projects	-5556
▁sequence	-5557
▁teaching	-5558
▁abandoned	-5559
▁Commission	-5560
▁Conference	-5561
▁literature	-5562
▁parliament	-5563
▁vegetables	-5564
▁headquarters	-5565
▁participated	-5566
ij	-5567
▁od	-5568
fast	-5569
pass	-5570
ugby	-5571
▁Alf	-5572
▁Des	-5573
▁ERA	-5574
▁Naz	-5575
▁ble	-5576
▁pal	-5577
▁pin	-5578
works	-5579
▁Dave	-5580
▁Dota	-5581
▁Good	-5582
▁bake	-5583
▁exec	-5584
▁tied	-5585
ashion	-5586
▁calls	-5587
▁defin	-5588
▁frogs	-5589
▁guard	-5590
▁moves	-5591
▁newly	-5592
▁shark	-5593
▁Gordon	-5594
▁Secret	-5595
▁applic	-5596
▁leader	-5597
▁losses	-5598
▁novels	-5599
▁sculpt	-5600
▁Chelsea	-5601
▁applied	-5602
▁display	-5603
▁retired	-5604
▁transit	-5605
▁manufact	-5606
▁spending	-5607
▁teachers	-5608
▁Meanwhile	-5609
▁nominated	-5610
▁determined	-5611
▁experienced	-5612
▁underground	-5613
▁increasingly	-5614
add	-5615
uge	-5616
▁Do	-5617
book	-5618
more	-5619
▁Tem	-5620
▁Vol	-5621
▁van	-5622
ector	-5623
enant	-5624
iston	-5625
prise	-5626
where	-5627
▁Also	-5628
▁Bost	-5629
▁Jean	-5630
▁Line	-5631
▁Oslo	-5632
▁extr	-5633
▁seed	-5634
▁subm	-5635
▁vert	-5636
iences	-5637
▁Stone	-5638
▁dimes	-5639
▁faced	-5640
▁Golden	-5641
▁People	-5642
▁column	-5643
▁dissip	-5644
▁filmed	-5645
▁titled	-5646
▁Eastern	-5647
▁MacLeod	-5648
▁Stephen	-5649
▁bedroom	-5650
▁consist	-5651
▁replace	-5652
▁breeding	-5653
▁infantry	-5654
▁shipping	-5655
▁visitors	-5656
lim	-5657
rot	-5658
una	-5659
▁FA	-5660
▁GA	-5661
▁Id	-5662
▁su	-5663
berg	-5664
oric	-5665
usal	-5666
▁Hug	-5667
▁Key	-5668
▁aer	-5669
▁cit	-5670
▁dyn	-5671
abeth	-5672
itude	-5673
▁Balt	-5674
▁note	-5675
▁rope	-5676
ilding	-5677
lysses	-5678
▁China	-5679
▁bones	-5680
▁decre	-5681
▁genus	-5682
▁Oxford	-5683
▁chance	-5684
▁energy	-5685
▁growth	-5686
▁Patrick	-5687
▁Ulysses	-5688
▁element	-5689
▁opposed	-5690
▁Addition	-5691
▁Minister	-5692
▁analysis	-5693
▁antimony	-5694
▁apparent	-5695
▁sandwich	-5696
▁Anonymous	-5697
▁historian	-5698
▁popularity	-5699
▁subsequent	-5700
▁intersection	-5701
▁Entertainment	-5702
▁Sa	-5703
▁UN	-5704
asty	-5705
haps	-5706
pers	-5707
▁Arm	-5708
▁Ing	-5709
▁eye	-5710
▁ing	-5711
▁jun	-5712
▁tal	-5713
Jamal	-5714
akers	-5715
usion	-5716
▁Band	-5717
▁Gulf	-5718
▁Nick	-5719
▁lear	-5720
▁rend	-5721
▁task	-5722
▁Kelly	-5723
▁Venus	-5724
▁doesn	-5725
▁exped	-5726
▁labor	-5727
▁loses	-5728
▁mouth	-5729
▁rival	-5730
▁seems	-5731
▁Palest	-5732
▁bucket	-5733
▁colony	-5734
▁fabric	-5735
▁slowly	-5736
▁Friends	-5737
▁Science	-5738
▁capture	-5739
▁squares	-5740
▁stopped	-5741
▁turtles	-5742
▁watches	-5743
▁packages	-5744
▁possibly	-5745
▁finishing	-5746
atus	-5747
▁AML	-5748
▁Rio	-5749
▁Var	-5750
▁Way	-5751
▁rub	-5752
▁tie	-5753
berry	-5754
iling	-5755
quake	-5756
stone	-5757
▁Inst	-5758
▁More	-5759
▁Rome	-5760
▁Stev	-5761
▁bicy	-5762
▁hill	-5763
▁magn	-5764
▁mang	-5765
▁penn	-5766
rative	-5767
ricult	-5768
uccess	-5769
▁Dutch	-5770
▁Holly	-5771
▁Jones	-5772
▁bands	-5773
▁cubic	-5774
▁ideas	-5775
▁remix	-5776
▁buried	-5777
▁degree	-5778
▁moment	-5779
▁proved	-5780
▁stayed	-5781
▁arrival	-5782
▁results	-5783
▁studied	-5784
▁volunte	-5785
▁churches	-5786
▁clothing	-5787
▁supposed	-5788
▁northwest	-5789
▁facilities	-5790
▁settlement	-5791
▁supporting	-5792
▁Constantine	-5793
gé	-5794
ta	-5795
ua	-5796
ux	-5797
ava	-5798
ned	-5799
ogs	-5800
udd	-5801
▁ML	-5802
▁Ré	-5803
▁Wi	-5804
asks	-5805
▁Sue	-5806
▁spr	-5807
antly	-5808
chest	-5809
iable	-5810
obile	-5811
▁Bond	-5812
▁Eric	-5813
▁Roll	-5814
▁Slam	-5815
▁Time	-5816
▁Writ	-5817
▁loan	-5818
▁pond	-5819
▁risk	-5820
▁Brend	-5821
▁categ	-5822
▁habit	-5823
▁limit	-5824
▁ounce	-5825
▁pilot	-5826
▁rolls	-5827
osaurus	-5828
▁Boston	-5829
▁Summer	-5830
▁riding	-5831
▁unknown	-5832
▁carrying	-5833
▁creation	-5834
▁improved	-5835
▁promoted	-5836
▁shooting	-5837
▁Alexander	-5838
▁connected	-5839
▁storyline	-5840
▁treatment	-5841
▁recognized	-5842
▁relatively	-5843
▁environment	-5844
▁commissioned	-5845
ela	-5846
har	-5847
ili	-5848
las	-5849
▁Rh	-5850
hire	-5851
thur	-5852
▁Ald	-5853
▁Gar	-5854
▁NBA	-5855
▁Tru	-5856
▁hor	-5857
▁mac	-5858
asure	-5859
aught	-5860
ordin	-5861
▁Next	-5862
▁Rail	-5863
▁Wall	-5864
▁crop	-5865
▁empt	-5866
▁here	-5867
▁kits	-5868
▁nuts	-5869
▁sure	-5870
▁tail	-5871
▁Admir	-5872
▁Italy	-5873
▁Roger	-5874
▁Water	-5875
▁aired	-5876
▁beaut	-5877
▁cited	-5878
▁nails	-5879
▁Maggie	-5880
▁Romani	-5881
▁Walter	-5882
▁allows	-5883
▁borrow	-5884
▁fought	-5885
▁owners	-5886
▁scores	-5887
▁submar	-5888
▁Fantasy	-5889
▁billion	-5890
▁trading	-5891
▁Magazine	-5892
▁Richards	-5893
▁accompan	-5894
▁requires	-5895
▁throwing	-5896
▁centuries	-5897
▁increases	-5898
▁successfully	-5899
ez	-5900
▁Ap	-5901
▁ha	-5902
uble	-5903
▁rid	-5904
aling	-5905
imens	-5906
unket	-5907
▁Bern	-5908
▁Beth	-5909
▁Free	-5910
▁Holy	-5911
▁glob	-5912
▁mist	-5913
▁samp	-5914
ittens	-5915
▁Haiti	-5916
▁Karen	-5917
▁Origin	-5918
▁illust	-5919
▁stores	-5920
▁throws	-5921
ulations	-5922
▁Plunket	-5923
▁Vietnam	-5924
▁amounts	-5925
▁jellybe	-5926
▁sisters	-5927
▁Yankovic	-5928
▁collects	-5929
▁entirely	-5930
▁platform	-5931
▁products	-5932
▁battalion	-5933
▁reception	-5934
▁foundation	-5935
▁maintained	-5936
▁soundtrack	-5937
▁publication	-5938
agn	-5939
ker	-5940
rec	-5941
erse	-5942
ingu	-5943
itan	-5944
iven	-5945
▁Ash	-5946
▁Att	-5947
▁Cur	-5948
▁Dev	-5949
▁Dor	-5950
▁Pen	-5951
▁Reb	-5952
▁UTC	-5953
▁err	-5954
▁hat	-5955
essed	-5956
iance	-5957
opher	-5958
ports	-5959
pound	-5960
pring	-5961
▁Baby	-5962
▁Stef	-5963
▁Truj	-5964
▁brig	-5965
▁knew	-5966
▁laws	-5967
▁unus	-5968
▁virt	-5969
ampion	-5970
bridge	-5971
heless	-5972
▁Twice	-5973
▁Video	-5974
▁begun	-5975
▁scale	-5976
▁Review	-5977
▁Soviet	-5978
▁deaths	-5979
▁editor	-5980
▁exclus	-5981
▁finals	-5982
▁matter	-5983
▁appoint	-5984
▁battles	-5985
▁counted	-5986
▁descend	-5987
▁dresses	-5988
▁rapidly	-5989
▁someone	-5990
▁theater	-5991
▁anything	-5992
▁sections	-5993
▁Elizabeth	-5994
▁breakfast	-5995
▁household	-5996
▁responded	-5997
▁jellybeans	-5998
OT	-5999
bar	-6000
fit	-6001
inj	-6002
ths	-6003
▁Hy	-6004
abil	-6005
ifer	-6006
▁Lev	-6007
▁Low	-6008
▁arr	-6009
▁rot	-6010
▁sco	-6011
aints	-6012
iewer	-6013
ighed	-6014
otton	-6015
▁Gall	-6016
▁Upon	-6017
▁dial	-6018
▁diam	-6019
▁firm	-6020
▁seat	-6021
▁soil	-6022
▁sole	-6023
perial	-6024
▁Album	-6025
▁Nancy	-6026
▁Patty	-6027
▁ready	-6028
▁roads	-6029
▁surre	-6030
▁Common	-6031
▁Somali	-6032
▁circul	-6033
▁compar	-6034
▁faster	-6035
▁poetry	-6036
▁resear	-6037
▁routes	-6038
▁sticks	-6039
▁captain	-6040
▁carrots	-6041
▁charity	-6042
▁learned	-6043
▁nothing	-6044
▁nuclear	-6045
▁proport	-6046
▁underst	-6047
▁Trujillo	-6048
▁accommod	-6049
▁declined	-6050
▁machines	-6051
▁vacation	-6052
▁versions	-6053
▁Americans	-6054
▁practices	-6055
▁Throughout	-6056
▁controlled	-6057
asc	-6058
fri	-6059
lay	-6060
nel	-6061
▁Ye	-6062
▁ox	-6063
arts	-6064
elsh	-6065
▁MTV	-6066
▁cow	-6067
▁eld	-6068
acked	-6069
eless	-6070
ideos	-6071
isers	-6072
▁Alan	-6073
▁Book	-6074
▁Even	-6075
▁Fern	-6076
▁Jour	-6077
▁Pers	-6078
▁Rose	-6079
▁cous	-6080
▁hits	-6081
▁muff	-6082
▁rebu	-6083
ishing	-6084
▁Lewis	-6085
▁batch	-6086
▁bonus	-6087
▁cells	-6088
▁gifts	-6089
▁grows	-6090
▁initi	-6091
▁portr	-6092
aration	-6093
▁Bridge	-6094
▁Hannah	-6095
▁chorus	-6096
▁decade	-6097
▁Theatre	-6098
▁decades	-6099
▁engaged	-6100
▁innings	-6101
▁kitchen	-6102
▁offense	-6103
▁payment	-6104
▁signing	-6105
▁spacing	-6106
▁Festival	-6107
▁Infantry	-6108
▁challeng	-6109
▁employed	-6110
▁function	-6111
▁learning	-6112
▁bracelets	-6113
▁gradually	-6114
▁traveling	-6115
▁interested	-6116
▁combination	-6117
▁recommended	-6118
▁contribution	-6119
omy	-6120
osa	-6121
▁DA	-6122
agle	-6123
bean	-6124
cery	-6125
lete	-6126
rell	-6127
ture	-6128
▁Der	-6129
▁Jif	-6130
▁Kil	-6131
▁arc	-6132
▁jew	-6133
itors	-6134
▁Conn	-6135
▁push	-6136
▁tomb	-6137
ifying	-6138
iments	-6139
ingale	-6140
▁Carib	-6141
▁Homer	-6142
▁Sally	-6143
▁Welsh	-6144
▁choir	-6145
▁craft	-6146
▁immig	-6147
▁plain	-6148
▁tanks	-6149
▁towns	-6150
▁Avenue	-6151
▁Master	-6152
▁Monica	-6153
▁elimin	-6154
▁retire	-6155
▁Stevens	-6156
▁address	-6157
▁minimum	-6158
▁organiz	-6159
▁setting	-6160
▁shorter	-6161
▁District	-6162
▁bathroom	-6163
▁conflict	-6164
▁expanded	-6165
▁homework	-6166
▁regarded	-6167
▁determine	-6168
▁worldwide	-6169
▁Activision	-6170
▁archaeological	-6171
ni	-6172
evo	-6173
born	-6174
mosp	-6175
▁Mod	-6176
▁Nov	-6177
▁Sap	-6178
▁Tel	-6179
▁mic	-6180
agues	-6181
ricks	-6182
sters	-6183
▁Kend	-6184
▁bell	-6185
offman	-6186
▁Among	-6187
▁Krist	-6188
▁heard	-6189
▁releg	-6190
▁tires	-6191
▁Albert	-6192
▁Strand	-6193
▁belief	-6194
▁depict	-6195
▁simple	-6196
▁towers	-6197
▁Project	-6198
▁cartons	-6199
▁failure	-6200
▁penalty	-6201
▁stadium	-6202
▁streets	-6203
▁weighed	-6204
▁witness	-6205
▁commonly	-6206
▁feathers	-6207
▁Caribbean	-6208
▁formation	-6209
▁opponents	-6210
▁possibility	-6211
eda	-6212
xts	-6213
▁mo	-6214
alls	-6215
hews	-6216
ieut	-6217
oked	-6218
oral	-6219
▁Hun	-6220
▁Jun	-6221
▁Mir	-6222
▁Nat	-6223
▁vic	-6224
▁zoo	-6225
allon	-6226
onica	-6227
urban	-6228
▁Bron	-6229
▁Crit	-6230
▁Tina	-6231
▁imag	-6232
▁mind	-6233
▁subs	-6234
▁Anton	-6235
▁Betty	-6236
▁Grace	-6237
▁Jifna	-6238
▁Wilde	-6239
▁dates	-6240
▁naval	-6241
▁slice	-6242
▁tests	-6243
▁trail	-6244
▁Archae	-6245
▁Calcul	-6246
▁Carter	-6247
▁Clarks	-6248
▁Hibari	-6249
▁Office	-6250
▁policy	-6251
▁sought	-6252
▁videos	-6253
▁equival	-6254
▁longest	-6255
▁monarch	-6256
▁revenue	-6257
▁turning	-6258
▁Commander	-6259
▁classroom	-6260
▁earthquake	-6261
isf	-6262
▁Sk	-6263
elve	-6264
ooth	-6265
rabs	-6266
rier	-6267
ryst	-6268
▁Joy	-6269
▁Pho	-6270
▁Ten	-6271
▁bey	-6272
▁eas	-6273
▁fan	-6274
▁lic	-6275
▁mut	-6276
asons	-6277
hered	-6278
olved	-6279
right	-6280
ulate	-6281
usted	-6282
▁Gard	-6283
▁Shel	-6284
▁dock	-6285
▁fung	-6286
▁jazz	-6287
▁lift	-6288
usalem	-6289
▁Board	-6290
▁Field	-6291
▁Hergé	-6292
▁Jenna	-6293
▁cinem	-6294
▁crown	-6295
▁heads	-6296
▁knows	-6297
▁occas	-6298
▁pregn	-6299
▁shell	-6300
▁squad	-6301
▁Arthur	-6302
▁Bishop	-6303
▁atmosp	-6304
▁escape	-6305
▁franch	-6306
▁powers	-6307
▁pulled	-6308
▁roller	-6309
▁safety	-6310
▁surviv	-6311
▁theory	-6312
▁briefly	-6313
▁enjoyed	-6314
▁grocery	-6315
▁involve	-6316
▁islands	-6317
▁mangoes	-6318
▁credited	-6319
▁reaction	-6320
▁stations	-6321
▁violence	-6322
▁Jerusalem	-6323
▁criticism	-6324
▁secondary	-6325
hr	-6326
ini	-6327
ugs	-6328
▁vo	-6329
amic	-6330
cept	-6331
▁Bon	-6332
▁Gab	-6333
▁kid	-6334
▁unf	-6335
ajevo	-6336
ender	-6337
erate	-6338
mates	-6339
▁Form	-6340
▁beds	-6341
▁pump	-6342
▁tiss	-6343
▁ways	-6344
▁Campb	-6345
▁Coast	-6346
▁Geoff	-6347
▁Liber	-6348
▁Never	-6349
▁Santa	-6350
▁camps	-6351
▁shore	-6352
▁Gerard	-6353
▁beyond	-6354
▁brings	-6355
▁colour	-6356
▁fellow	-6357
▁purple	-6358
▁saving	-6359
heastern	-6360
▁Rangers	-6361
▁Studios	-6362
▁airline	-6363
▁charter	-6364
▁economy	-6365
▁kittens	-6366
▁package	-6367
▁Clarkson	-6368
▁Director	-6369
▁Olympics	-6370
▁Sarajevo	-6371
▁Veronica	-6372
▁incident	-6373
▁measures	-6374
▁agreement	-6375
▁necklaces	-6376
▁unsuccess	-6377
▁frequently	-6378
▁administration	-6379
eck	-6380
eed	-6381
ote	-6382
sec	-6383
▁pm	-6384
nuts	-6385
owed	-6386
raph	-6387
resp	-6388
uits	-6389
usad	-6390
▁BCE	-6391
▁Eat	-6392
▁Raj	-6393
▁Run	-6394
▁Tri	-6395
▁ast	-6396
break	-6397
ecess	-6398
gests	-6399
gress	-6400
imore	-6401
osite	-6402
peror	-6403
uming	-6404
▁Anne	-6405
▁Down	-6406
▁Hard	-6407
▁Hell	-6408
▁cold	-6409
▁fict	-6410
▁meal	-6411
▁mole	-6412
▁scar	-6413
ighter	-6414
stream	-6415
▁Barry	-6416
▁Maeda	-6417
▁adapt	-6418
▁drawn	-6419
▁knots	-6420
▁laund	-6421
▁phase	-6422
▁stret	-6423
▁texts	-6424
▁tries	-6425
▁wides	-6426
▁branch	-6427
▁circum	-6428
▁dating	-6429
▁eighth	-6430
▁grapes	-6431
▁symbol	-6432
atherine	-6433
▁Croatia	-6434
▁Roberts	-6435
▁fashion	-6436
▁notable	-6437
▁returns	-6438
▁stripes	-6439
▁worship	-6440
formation	-6441
▁Bradford	-6442
▁acquired	-6443
▁ceremony	-6444
▁district	-6445
▁pictures	-6446
▁suggests	-6447
▁effective	-6448
▁Revolution	-6449
▁developing	-6450
▁intelligence	-6451
▁representing	-6452
▁significantly	-6453
NA	-6454
OC	-6455
hl	-6456
ario	-6457
gets	-6458
iley	-6459
rien	-6460
rons	-6461
wers	-6462
▁Age	-6463
▁enl	-6464
▁eth	-6465
▁mig	-6466
oking	-6467
pread	-6468
senal	-6469
▁Corn	-6470
▁Pope	-6471
▁Rain	-6472
▁evac	-6473
▁pret	-6474
▁skin	-6475
iously	-6476
▁Julia	-6477
▁Keamy	-6478
▁Radio	-6479
▁chees	-6480
▁drama	-6481
▁faith	-6482
▁funds	-6483
▁likes	-6484
stances	-6485
▁Adding	-6486
▁Jeremy	-6487
▁Jersey	-6488
▁System	-6489
▁decide	-6490
▁discip	-6491
▁headed	-6492
▁ingred	-6493
▁portra	-6494
▁stages	-6495
▁triang	-6496
▁Destiny	-6497
▁Shortly	-6498
▁cricket	-6499
▁doubled	-6500
▁footage	-6501
▁funding	-6502
▁landing	-6503
▁peaches	-6504
▁perhaps	-6505
▁Francisc	-6506
▁Governor	-6507
▁accounts	-6508
▁instruct	-6509
▁monument	-6510
▁negative	-6511
▁insurance	-6512
▁chocolates	-6513
▁Additionally	-6514
ano	-6515
bur	-6516
lik	-6517
ruz	-6518
aron	-6519
inch	-6520
ogen	-6521
oles	-6522
uate	-6523
wich	-6524
yles	-6525
▁Fer	-6526
▁Hon	-6527
▁Lee	-6528
▁Obs	-6529
▁Rif	-6530
▁ber	-6531
▁cro	-6532
▁gym	-6533
▁nor	-6534
▁pup	-6535
▁why	-6536
astal	-6537
eenth	-6538
erted	-6539
ivity	-6540
ollip	-6541
pping	-6542
▁Init	-6543
▁Kate	-6544
▁Marg	-6545
▁Stew	-6546
▁Team	-6547
▁Wind	-6548
▁fine	-6549
▁leuk	-6550
▁mail	-6551
▁poly	-6552
coming	-6553
ickets	-6554
illing	-6555
▁Roxas	-6556
▁gross	-6557
▁rhyth	-6558
clusion	-6559
iations	-6560
▁breaks	-6561
▁denied	-6562
▁gather	-6563
▁lollip	-6564
▁muscar	-6565
▁taught	-6566
▁thirty	-6567
▁towels	-6568
▁viewed	-6569
▁Janeiro	-6570
▁Russian	-6571
▁Somalia	-6572
▁convert	-6573
▁details	-6574
▁exactly	-6575
▁muffins	-6576
▁reconst	-6577
▁centimet	-6578
▁survived	-6579
▁mushrooms	-6580
▁southwest	-6581
▁equivalent	-6582
▁generation	-6583
▁strengthen	-6584
▁association	-6585
gas	-6586
och	-6587
the	-6588
uma	-6589
▁Wy	-6590
enge	-6591
eton	-6592
host	-6593
nest	-6594
orns	-6595
rene	-6596
▁Adv	-6597
▁Men	-6598
istol	-6599
shire	-6600
▁Benj	-6601
▁Gram	-6602
▁Pete	-6603
▁acid	-6604
▁bond	-6605
▁pric	-6606
▁sens	-6607
▁sort	-6608
▁temp	-6609
▁wine	-6610
▁Greek	-6611
▁Jesus	-6612
▁bakes	-6613
▁basic	-6614
▁leads	-6615
▁ninth	-6616
▁outer	-6617
eration	-6618
▁Dublin	-6619
▁Lawton	-6620
▁Philip	-6621
▁bricks	-6622
▁chapel	-6623
▁charts	-6624
▁comput	-6625
▁divine	-6626
▁driver	-6627
▁fields	-6628
▁string	-6629
▁Chronic	-6630
▁Instead	-6631
▁accompl	-6632
▁aspects	-6633
▁colored	-6634
▁digital	-6635
▁disturb	-6636
▁earning	-6637
▁fishing	-6638
▁painted	-6639
▁pitcher	-6640
ieutenant	-6641
▁agricult	-6642
▁exchange	-6643
▁existing	-6644
▁medieval	-6645
▁provides	-6646
▁religion	-6647
▁resident	-6648
▁extensive	-6649
▁assistance	-6650
▁accompanied	-6651
la	-6652
ras	-6653
yer	-6654
▁Az	-6655
apes	-6656
iful	-6657
imal	-6658
iped	-6659
mons	-6660
olly	-6661
othy	-6662
yson	-6663
▁Det	-6664
▁Leo	-6665
▁Liz	-6666
▁Sha	-6667
▁Sor	-6668
▁map	-6669
ashed	-6670
ateur	-6671
iform	-6672
ribed	-6673
udden	-6674
▁Benn	-6675
▁Braz	-6676
▁Emma	-6677
▁Kann	-6678
▁fear	-6679
▁fert	-6680
▁gone	-6681
▁load	-6682
▁logs	-6683
▁remn	-6684
▁tact	-6685
▁tell	-6686
▁zone	-6687
affles	-6688
insula	-6689
tering	-6690
▁Bobby	-6691
▁Daily	-6692
▁Georg	-6693
▁Tommy	-6694
▁bikes	-6695
▁eleph	-6696
▁goats	-6697
▁wrong	-6698
▁Kilmer	-6699
▁Turner	-6700
▁assass	-6701
▁cookie	-6702
▁crimin	-6703
▁danger	-6704
▁survey	-6705
▁Aniston	-6706
▁Douglas	-6707
▁Goffman	-6708
▁capable	-6709
▁catches	-6710
▁greatly	-6711
▁neither	-6712
▁opinion	-6713
▁protect	-6714
▁typical	-6715
▁distingu	-6716
▁protagon	-6717
▁sessions	-6718
▁watermel	-6719
▁weakened	-6720
▁Committee	-6721
▁Operation	-6722
▁Plunketts	-6723
▁fictional	-6724
▁principal	-6725
▁succeeded	-6726
▁importance	-6727
▁widespread	-6728
▁distributed	-6729
oz	-6730
ét	-6731
sta	-6732
▁Ba	-6733
▁ec	-6734
asha	-6735
erts	-6736
iger	-6737
sych	-6738
▁Ast	-6739
▁CDs	-6740
▁Fox	-6741
▁Hou	-6742
▁Mem	-6743
▁rif	-6744
worth	-6745
▁Base	-6746
▁Fire	-6747
▁Germ	-6748
▁Prov	-6749
▁diet	-6750
▁impr	-6751
▁laps	-6752
▁mean	-6753
▁nest	-6754
▁shut	-6755
▁sons	-6756
graded	-6757
▁entry	-6758
▁munic	-6759
▁quite	-6760
▁recru	-6761
▁spons	-6762
▁uncle	-6763
▁wheel	-6764
▁worst	-6765
▁yield	-6766
iration	-6767
raction	-6768
umption	-6769
uration	-6770
▁appeal	-6771
▁compos	-6772
▁crates	-6773
▁launch	-6774
▁secure	-6775
▁supply	-6776
▁Saprang	-6777
▁Stadium	-6778
▁filming	-6779
▁orchest	-6780
▁paralle	-6781
▁purpose	-6782
▁regions	-6783
▁roughly	-6784
▁willing	-6785
▁Victoria	-6786
▁download	-6787
▁indicate	-6788
▁protests	-6789
▁Baltimore	-6790
▁Calculate	-6791
▁Combining	-6792
▁converted	-6793
▁dominated	-6794
▁franchise	-6795
▁permanent	-6796
oli	-6797
tes	-6798
usc	-6799
▁RA	-6800
▁je	-6801
come	-6802
onic	-6803
pent	-6804
▁Bry	-6805
▁Ele	-6806
▁Rem	-6807
▁lad	-6808
▁lbw	-6809
Brien	-6810
hetic	-6811
ouses	-6812
rings	-6813
▁Dean	-6814
▁Wolf	-6815
▁anth	-6816
▁coat	-6817
▁deck	-6818
▁phil	-6819
lisher	-6820
▁Chart	-6821
▁Sound	-6822
▁babys	-6823
▁citiz	-6824
▁empty	-6825
▁prize	-6826
▁races	-6827
▁ruled	-6828
▁rural	-6829
▁theat	-6830
▁Aerith	-6831
▁Amanda	-6832
▁Commun	-6833
▁Hearts	-6834
▁Johnny	-6835
▁Pitman	-6836
▁Weekly	-6837
▁carbon	-6838
▁rescue	-6839
▁snakes	-6840
▁stands	-6841
▁taller	-6842
▁drawing	-6843
▁install	-6844
▁objects	-6845
▁reflect	-6846
▁Dividing	-6847
▁crackers	-6848
▁obtained	-6849
▁Hollywood	-6850
▁producing	-6851
▁technique	-6852
▁Richardson	-6853
▁destroyers	-6854
▁kilometres	-6855
▁protection	-6856
▁opportunity	-6857
aka	-6858
bie	-6859
▁Ah	-6860
▁Ak	-6861
▁ib	-6862
ipes	-6863
oted	-6864
rets	-6865
wise	-6866
▁Bos	-6867
▁Bul	-6868
▁Int	-6869
▁Van	-6870
▁die	-6871
▁dub	-6872
▁hem	-6873
▁pap	-6874
▁ter	-6875
aming	-6876
erers	-6877
idden	-6878
ledon	-6879
▁Area	-6880
▁Gwen	-6881
▁Hans	-6882
▁Jose	-6883
▁Mega	-6884
▁Wimb	-6885
▁isol	-6886
▁warm	-6887
▁wasn	-6888
anning	-6889
atures	-6890
▁About	-6891
▁Annie	-6892
▁Lords	-6893
▁Tower	-6894
▁cabin	-6895
▁fills	-6896
▁views	-6897
ections	-6898
▁Democr	-6899
▁Flight	-6900
▁Howard	-6901
▁Marine	-6902
▁assign	-6903
▁burned	-6904
▁cotton	-6905
▁phones	-6906
▁regime	-6907
▁select	-6908
▁twelve	-6909
▁History	-6910
▁Raffles	-6911
▁Similar	-6912
▁closely	-6913
▁holiday	-6914
▁pennies	-6915
▁session	-6916
▁changing	-6917
▁chapters	-6918
▁dividing	-6919
▁entering	-6920
▁invasion	-6921
▁offering	-6922
▁Wimbledon	-6923
▁locations	-6924
▁sentences	-6925
▁yesterday	-6926
▁difficulty	-6927
▁substitute	-6928
▁constitution	-6929
▁establishment	-6930
die	-6931
how	-6932
igo	-6933
igs	-6934
▁IG	-6935
▁NS	-6936
▁Si	-6937
ardo	-6938
heim	-6939
pack	-6940
wick	-6941
▁DAG	-6942
▁Mot	-6943
▁Mov	-6944
▁Osc	-6945
▁Sab	-6946
▁aim	-6947
icial	-6948
itled	-6949
▁Maur	-6950
▁bone	-6951
▁dise	-6952
▁synt	-6953
tailed	-6954
▁Chief	-6955
▁agent	-6956
▁baked	-6957
▁crime	-6958
▁drank	-6959
▁fence	-6960
▁grown	-6961
▁sword	-6962
▁width	-6963
olished	-6964
quarium	-6965
▁Castle	-6966
▁Fraser	-6967
▁Poland	-6968
▁Wilson	-6969
▁explos	-6970
▁looked	-6971
▁repair	-6972
▁streak	-6973
▁parties	-6974
▁secured	-6975
▁showing	-6976
▁waiting	-6977
▁Athletic	-6978
▁Benjamin	-6979
▁Columbia	-6980
▁Phillies	-6981
▁arranged	-6982
▁historic	-6983
▁presents	-6984
▁certified	-6985
▁existence	-6986
▁regarding	-6987
▁separated	-6988
▁standards	-6989
▁statement	-6990
▁approached	-6991
▁conference	-6992
▁ingredients	-6993
AT	-6994
eer	-6995
omp	-6996
ulu	-6997
▁Oh	-6998
▁ur	-6999
alky	-7000
burg	-7001
ilit	-7002
kets	-7003
life	-7004
rant	-7005
rows	-7006
▁Die	-7007
▁Dur	-7008
▁Hok	-7009
▁IGN	-7010
▁NHL	-7011
▁Nad	-7012
▁Tal	-7013
▁Win	-7014
▁bay	-7015
▁ben	-7016
▁flu	-7017
amber	-7018
anean	-7019
ortal	-7020
ospit	-7021
ropol	-7022
▁Asia	-7023
▁Bass	-7024
▁butt	-7025
▁hamb	-7026
▁hope	-7027
▁mart	-7028
▁prey	-7029
▁Broad	-7030
▁Order	-7031
▁Palmy	-7032
▁Power	-7033
▁Songs	-7034
▁agree	-7035
▁drums	-7036
▁scrap	-7037
▁signs	-7038
istance	-7039
▁Brazil	-7040
▁Oliver	-7041
▁Public	-7042
▁Territ	-7043
▁assemb	-7044
▁convoy	-7045
▁courts	-7046
▁dishes	-7047
▁posted	-7048
▁prerog	-7049
▁rebels	-7050
▁recipe	-7051
▁Atlanta	-7052
▁answers	-7053
▁decline	-7054
▁derived	-7055
▁doubles	-7056
▁emerged	-7057
▁fastest	-7058
▁railway	-7059
▁reasons	-7060
▁scholar	-7061
sequently	-7062
▁Richmond	-7063
▁depicted	-7064
▁lemonade	-7065
▁meetings	-7066
▁terminus	-7067
▁assistant	-7068
▁recovered	-7069
▁attributed	-7070
▁newspapers	-7071
▁composition	-7072
▁considerable	-7073
▁institutions	-7074
BS	-7075
rs	-7076
aro	-7077
ror	-7078
uns	-7079
▁ic	-7080
aste	-7081
avia	-7082
inje	-7083
olen	-7084
uces	-7085
▁Rel	-7086
▁hip	-7087
iants	-7088
▁Arts	-7089
▁Bank	-7090
▁Duke	-7091
▁Iron	-7092
▁moon	-7093
aments	-7094
formed	-7095
intend	-7096
ultane	-7097
▁Crown	-7098
▁Oscar	-7099
▁flash	-7100
▁gamep	-7101
▁goods	-7102
▁hoped	-7103
▁joint	-7104
▁layer	-7105
▁psych	-7106
▁quant	-7107
▁rules	-7108
▁slide	-7109
▁spect	-7110
▁wings	-7111
▁Nichol	-7112
▁arrive	-7113
▁expans	-7114
▁planks	-7115
▁serial	-7116
▁traded	-7117
▁trains	-7118
▁valley	-7119
▁Rolling	-7120
▁baskets	-7121
▁burgers	-7122
▁cheaper	-7123
▁focused	-7124
▁periods	-7125
▁publish	-7126
▁renamed	-7127
▁statues	-7128
▁strateg	-7129
▁minister	-7130
▁muscaria	-7131
▁settlers	-7132
▁substant	-7133
▁Argentina	-7134
▁appearing	-7135
▁consisting	-7136
▁department	-7137
▁describing	-7138
▁instrument	-7139
▁university	-7140
▁communities	-7141
aga	-7142
erg	-7143
nic	-7144
▁CE	-7145
▁Li	-7146
▁Ra	-7147
▁ho	-7148
▁py	-7149
body	-7150
dney	-7151
niow	-7152
reme	-7153
what	-7154
▁Abb	-7155
▁Hay	-7156
▁Inc	-7157
▁Ral	-7158
▁coc	-7159
▁orn	-7160
▁rum	-7161
▁sky	-7162
achus	-7163
asers	-7164
heera	-7165
ropri	-7166
state	-7167
▁Ball	-7168
▁Furt	-7169
▁adap	-7170
▁hole	-7171
▁liqu	-7172
▁mine	-7173
echism	-7174
ecraft	-7175
rently	-7176
riages	-7177
▁Bulls	-7178
▁Hotel	-7179
▁accur	-7180
▁cloud	-7181
▁envel	-7182
▁genre	-7183
▁ocean	-7184
▁rocks	-7185
▁steam	-7186
▁steel	-7187
idering	-7188
niowiec	-7189
respond	-7190
▁Freder	-7191
▁Nether	-7192
▁models	-7193
▁option	-7194
▁peanut	-7195
▁philos	-7196
▁propos	-7197
iversary	-7198
▁Protest	-7199
▁Stanley	-7200
▁jackrab	-7201
▁washing	-7202
▁Lawrence	-7203
▁aquarium	-7204
▁gameplay	-7205
▁goldfish	-7206
▁gumballs	-7207
▁realized	-7208
▁regional	-7209
▁strongly	-7210
▁reinforce	-7211
▁thousands	-7212
▁dissipated	-7213
▁experiment	-7214
▁initiative	-7215
▁technology	-7216
▁alternative	-7217
▁replacement	-7218
▁introduction	-7219
▁occasionally	-7220
▁specifically	-7221
)*	-7222
DH	-7223
ye	-7224
uan	-7225
utz	-7226
acle	-7227
agre	-7228
graf	-7229
mile	-7230
odon	-7231
rels	-7232
▁Bed	-7233
▁Cab	-7234
▁Gil	-7235
▁Jen	-7236
▁Mit	-7237
▁Nar	-7238
▁Row	-7239
▁ign	-7240
▁rib	-7241
▁une	-7242
aware	-7243
ithic	-7244
ucing	-7245
under	-7246
▁Bark	-7247
▁Dark	-7248
▁Fame	-7249
▁Here	-7250
▁Howe	-7251
▁Parv	-7252
▁Pass	-7253
▁Type	-7254
▁arts	-7255
▁dais	-7256
▁grey	-7257
▁item	-7258
▁toll	-7259
▁Eaton	-7260
▁Stock	-7261
▁Valky	-7262
▁alien	-7263
▁chess	-7264
▁chest	-7265
▁drops	-7266
▁grant	-7267
▁jumps	-7268
▁looks	-7269
▁negot	-7270
▁print	-7271
▁rings	-7272
▁Marcus	-7273
▁Rhodes	-7274
▁credit	-7275
▁deploy	-7276
▁detail	-7277
▁elabor	-7278
▁lights	-7279
▁lowest	-7280
▁memory	-7281
▁preced	-7282
▁puzzle	-7283
▁stairs	-7284
▁visits	-7285
entially	-7286
ographic	-7287
▁Admiral	-7288
▁Furtado	-7289
▁Germans	-7290
▁Kannada	-7291
▁Mexican	-7292
▁Stefani	-7293
▁batches	-7294
▁berries	-7295
▁encount	-7296
▁kitsune	-7297
▁laundry	-7298
▁puzzles	-7299
▁shelter	-7300
▁Markgraf	-7301
▁Military	-7302
▁arrested	-7303
▁believes	-7304
▁maintain	-7305
▁somewhat	-7306
▁thinking	-7307
▁youngest	-7308
▁candidate	-7309
▁challenge	-7310
▁committed	-7311
▁daughters	-7312
▁dismissed	-7313
▁successor	-7314
▁completion	-7315
▁sufficient	-7316
▁destination	-7317
▁documentary	-7318
OK	-7319
hm	-7320
agu	-7321
iah	-7322
lee	-7323
osm	-7324
ube	-7325
▁Ms	-7326
▁Ta	-7327
▁mg	-7328
ador	-7329
home	-7330
icia	-7331
izer	-7332
long	-7333
nell	-7334
ucky	-7335
▁Dyn	-7336
▁Gib	-7337
▁Ian	-7338
▁Wic	-7339
▁hyd	-7340
alley	-7341
arson	-7342
ifies	-7343
▁Owen	-7344
▁Usta	-7345
▁Work	-7346
▁bear	-7347
▁carn	-7348
▁coin	-7349
▁ears	-7350
▁spac	-7351
▁tape	-7352
gallon	-7353
season	-7354
wealth	-7355
▁Human	-7356
▁Jamie	-7357
▁cargo	-7358
▁fixed	-7359
▁inner	-7360
▁overw	-7361
▁solid	-7362
▁teasp	-7363
▁verte	-7364
ception	-7365
utation	-7366
▁Around	-7367
▁Michel	-7368
▁cancer	-7369
▁desert	-7370
▁favour	-7371
▁firing	-7372
▁sequel	-7373
▁shaped	-7374
▁vision	-7375
▁Marines	-7376
▁assumed	-7377
▁defined	-7378
▁tablesp	-7379
▁weekday	-7380
▁whereas	-7381
▁Industry	-7382
▁earrings	-7383
▁opposite	-7384
▁Secretary	-7385
▁exception	-7386
▁materials	-7387
▁providing	-7388
▁suffering	-7389
▁technical	-7390
▁competitor	-7391
▁correspond	-7392
▁investment	-7393
▁proportion	-7394
▁anniversary	-7395
▁interchange	-7396
▁prerogative	-7397
iko	-7398
osh	-7399
uls	-7400
anya	-7401
corn	-7402
elia	-7403
eman	-7404
ishn	-7405
mate	-7406
onia	-7407
otte	-7408
ownt	-7409
urse	-7410
▁Alb	-7411
▁Swe	-7412
▁gat	-7413
ansas	-7414
ilton	-7415
ingly	-7416
iques	-7417
point	-7418
▁Earl	-7419
▁Neil	-7420
▁Pine	-7421
▁Walk	-7422
▁Wars	-7423
▁asks	-7424
▁fart	-7425
▁poll	-7426
▁pots	-7427
▁safe	-7428
▁tunn	-7429
▁wear	-7430
atters	-7431
erring	-7432
itches	-7433
▁Elect	-7434
▁amino	-7435
▁gates	-7436
▁kings	-7437
▁shift	-7438
▁sodas	-7439
▁voted	-7440
theless	-7441
▁Family	-7442
▁Forces	-7443
▁Spring	-7444
▁camera	-7445
▁colors	-7446
▁emails	-7447
▁extrem	-7448
▁junior	-7449
▁noting	-7450
▁pupils	-7451
▁seeing	-7452
▁sudden	-7453
▁tribes	-7454
riptions	-7455
▁Parvati	-7456
▁Réunion	-7457
▁accused	-7458
▁article	-7459
▁authors	-7460
▁congreg	-7461
▁crossed	-7462
▁falling	-7463
▁fifteen	-7464
▁playoff	-7465
▁ratings	-7466
▁uniform	-7467
niowiecki	-7468
▁Maryland	-7469
▁Simpsons	-7470
▁academic	-7471
▁borrowed	-7472
▁breaking	-7473
▁concerns	-7474
▁interior	-7475
▁reviewer	-7476
▁swimming	-7477
▁Cambridge	-7478
▁Charlotte	-7479
▁southeast	-7480
▁survivors	-7481
▁Lieutenant	-7482
▁classified	-7483
▁connection	-7484
▁possession	-7485
▁touchdowns	-7486
▁arrangement	-7487
▁recognition	-7488
▁transportation	-7489
CA	-7490
kg	-7491
bra	-7492
ipl	-7493
ois	-7494
rep	-7495
▁Ts	-7496
▁aw	-7497
aska	-7498
know	-7499
olay	-7500
star	-7501
▁Bus	-7502
▁Hob	-7503
▁fal	-7504
▁lob	-7505
allow	-7506
itage	-7507
orage	-7508
ushes	-7509
▁Bath	-7510
▁Cubs	-7511
▁Dian	-7512
▁Head	-7513
▁Krak	-7514
▁Laur	-7515
▁Omar	-7516
▁mask	-7517
▁myth	-7518
▁none	-7519
▁pigs	-7520
▁pock	-7521
▁rice	-7522
▁spin	-7523
erland	-7524
▁Larry	-7525
▁Organ	-7526
▁Prime	-7527
▁Ralph	-7528
▁absor	-7529
▁aware	-7530
▁consc	-7531
▁crake	-7532
▁flies	-7533
▁happy	-7534
▁meets	-7535
▁verse	-7536
entions	-7537
ishment	-7538
▁Carmel	-7539
▁Gerald	-7540
▁Mitche	-7541
▁Native	-7542
▁Portug	-7543
▁Sydney	-7544
▁acknow	-7545
▁compon	-7546
▁escort	-7547
▁evenly	-7548
▁expect	-7549
▁facing	-7550
▁loaves	-7551
▁manner	-7552
▁motion	-7553
▁patron	-7554
▁reduce	-7555
▁remove	-7556
▁rhythm	-7557
▁Fernand	-7558
▁classic	-7559
▁coastal	-7560
▁mixture	-7561
▁popcorn	-7562
▁readers	-7563
▁vehicle	-7564
▁Imperial	-7565
▁attached	-7566
▁chemical	-7567
▁examples	-7568
▁instance	-7569
▁missions	-7570
▁recalled	-7571
▁attracted	-7572
▁computers	-7573
▁concerned	-7574
▁container	-7575
▁predecess	-7576
▁protected	-7577
▁regularly	-7578
▁Depression	-7579
▁apartments	-7580
▁industrial	-7581
▁retirement	-7582
▁spacecraft	-7583
▁independence	-7584
▁Championships	-7585
aug	-7586
cut	-7587
gro	-7588
ori	-7589
▁DC	-7590
▁Ni	-7591
▁WW	-7592
boat	-7593
case	-7594
iege	-7595
▁Dig	-7596
▁Dun	-7597
▁Ton	-7598
▁Tra	-7599
▁din	-7600
acent	-7601
attle	-7602
ullen	-7603
▁Emmy	-7604
▁Hung	-7605
▁Prod	-7606
▁Rest	-7607
▁bulk	-7608
▁clim	-7609
▁fees	-7610
▁jobs	-7611
▁sick	-7612
▁soap	-7613
▁sulf	-7614
▁thin	-7615
friend	-7616
teenth	-7617
▁Gabri	-7618
▁Grant	-7619
▁Magad	-7620
▁Marsh	-7621
▁adopt	-7622
▁elder	-7623
▁fries	-7624
▁jeans	-7625
▁legos	-7626
▁stead	-7627
▁stops	-7628
▁union	-7629
▁Hokies	-7630
▁Korean	-7631
▁Sholay	-7632
▁hockey	-7633
▁speech	-7634
▁Coleman	-7635
▁Houston	-7636
▁Israeli	-7637
▁Jessica	-7638
▁Madison	-7639
▁carries	-7640
▁cooking	-7641
▁cruiser	-7642
▁lessons	-7643
▁message	-7644
▁partial	-7645
▁picture	-7646
▁runners	-7647
▁survive	-7648
▁theatre	-7649
▁treated	-7650
▁unusual	-7651
▁Tennyson	-7652
▁civilian	-7653
▁crossing	-7654
▁defences	-7655
▁ordering	-7656
▁repeated	-7657
▁writings	-7658
▁Dominican	-7659
▁doughnuts	-7660
▁emotional	-7661
▁immediate	-7662
▁lollipops	-7663
▁collecting	-7664
▁continuing	-7665
▁expedition	-7666
▁opposition	-7667
▁references	-7668
▁threatened	-7669
▁Marlborough	-7670
▁researchers	-7671
%,	-7672
ng	-7673
uv	-7674
▁Bi	-7675
cake	-7676
cies	-7677
esar	-7678
etts	-7679
four	-7680
ocal	-7681
▁Cru	-7682
▁Cyr	-7683
▁Eve	-7684
▁Sel	-7685
▁Sid	-7686
▁VII	-7687
▁pow	-7688
▁tea	-7689
▁upd	-7690
inton	-7691
iterr	-7692
place	-7693
scape	-7694
umpty	-7695
▁Chen	-7696
▁Gary	-7697
▁Nina	-7698
▁Trib	-7699
▁duck	-7700
▁encl	-7701
▁panc	-7702
▁sung	-7703
▁tend	-7704
▁Along	-7705
▁Labor	-7706
▁Moore	-7707
▁Sweet	-7708
▁Tracy	-7709
▁magic	-7710
▁poems	-7711
▁polic	-7712
▁puppy	-7713
▁recre	-7714
▁stack	-7715
▁tract	-7716
▁Bertin	-7717
▁debate	-7718
▁desire	-7719
▁duties	-7720
▁eleven	-7721
▁fallen	-7722
▁fertil	-7723
▁nights	-7724
▁rarely	-7725
▁shares	-7726
▁sleeps	-7727
▁smooth	-7728
▁superv	-7729
▁Journal	-7730
▁Matthew	-7731
▁Seattle	-7732
▁Singles	-7733
▁Station	-7734
▁Stephan	-7735
▁batsman	-7736
▁disease	-7737
▁injured	-7738
▁kingdom	-7739
▁methods	-7740
▁princip	-7741
▁putting	-7742
▁trained	-7743
▁vessels	-7744
▁Combined	-7745
▁Guardian	-7746
▁Hospital	-7747
▁Johnston	-7748
▁Township	-7749
▁chairman	-7750
▁champion	-7751
▁feelings	-7752
▁romantic	-7753
▁subjects	-7754
▁Francisco	-7755
▁Peninsula	-7756
▁allowance	-7757
▁defeating	-7758
▁extremely	-7759
▁municipal	-7760
▁publisher	-7761
▁submarine	-7762
▁Magadheera	-7763
▁atmosphere	-7764
▁historians	-7765
▁leadership	-7766
▁reputation	-7767
▁revolution	-7768
▁Christopher	-7769
▁blueberries	-7770
▁decorations	-7771
▁quarterback	-7772
*(	-7773
NL	-7774
tw	-7775
arm	-7776
rin	-7777
ugu	-7778
▁Di	-7779
▁IV	-7780
▁Ru	-7781
issa	-7782
ryce	-7783
▁Ark	-7784
▁Bal	-7785
▁Kit	-7786
▁McG	-7787
▁Tig	-7788
▁Top	-7789
▁USA	-7790
▁san	-7791
after	-7792
class	-7793
cular	-7794
going	-7795
hells	-7796
licop	-7797
osure	-7798
raham	-7799
▁Abby	-7800
▁Barn	-7801
▁Beat	-7802
▁Celt	-7803
▁Face	-7804
▁Lang	-7805
▁Sher	-7806
▁cens	-7807
▁flav	-7808
▁inte	-7809
▁mort	-7810
▁pace	-7811
▁teen	-7812
▁vary	-7813
▁wore	-7814
allows	-7815
ceived	-7816
▁Allen	-7817
▁Banks	-7818
▁chain	-7819
▁freed	-7820
▁giant	-7821
▁loves	-7822
▁panel	-7823
▁urban	-7824
century	-7825
ilation	-7826
intendo	-7827
issance	-7828
ructure	-7829
▁Brenda	-7830
▁Confed	-7831
▁Ernest	-7832
▁Modern	-7833
▁Muslim	-7834
▁Norway	-7835
▁Palace	-7836
▁Parker	-7837
▁Police	-7838
▁Shakes	-7839
▁Temple	-7840
▁Unlike	-7841
▁actual	-7842
▁depend	-7843
▁driven	-7844
▁knives	-7845
▁landed	-7846
▁pushed	-7847
▁sector	-7848
▁Colonel	-7849
▁Georgia	-7850
▁Perfect	-7851
▁absence	-7852
▁concess	-7853
▁creator	-7854
▁daisies	-7855
▁explore	-7856
▁helicop	-7857
▁markers	-7858
▁pointed	-7859
▁sitting	-7860
▁synthes	-7861
achusetts	-7862
▁Mediterr	-7863
▁Ministry	-7864
▁Nintendo	-7865
▁Valkyria	-7866
▁behavior	-7867
▁communic	-7868
▁detailed	-7869
▁employee	-7870
▁gathered	-7871
▁patients	-7872
▁speaking	-7873
▁Initially	-7874
▁classical	-7875
▁discovery	-7876
▁intention	-7877
▁mountains	-7878
▁surviving	-7879
▁attempting	-7880
▁convection	-7881
▁excavation	-7882
▁surrounded	-7883
▁centimeters	-7884
▁designation	-7885
▁effectively	-7886
▁instruments	-7887
▁territories	-7888
▁Commonwealth	-7889
▁Massachusetts	-7890
▁Mediterranean	-7891
agh	-7892
amm	-7893
ean	-7894
ext	-7895
put	-7896
▁CP	-7897
▁Gi	-7898
▁Ky	-7899
ante	-7900
emia	-7901
icts	-7902
pted	-7903
▁Amy	-7904
▁Anc	-7905
▁Les	-7906
▁Pur	-7907
▁Ret	-7908
▁SAS	-7909
▁bes	-7910
▁bou	-7911
erves	-7912
named	-7913
omura	-7914
peare	-7915
rafts	-7916
▁Brid	-7917
▁Djok	-7918
▁Hamp	-7919
▁Lucy	-7920
▁acts	-7921
▁bind	-7922
▁clay	-7923
▁flew	-7924
▁flow	-7925
▁frig	-7926
▁jars	-7927
▁vote	-7928
▁zomb	-7929
Malley	-7930
father	-7931
mother	-7932
thlete	-7933
▁Adams	-7934
▁Bruce	-7935
▁Laura	-7936
▁Leigh	-7937
▁Minor	-7938
▁autom	-7939
▁crops	-7940
▁divor	-7941
▁nurse	-7942
▁plate	-7943
ificial	-7944
▁Barker	-7945
▁Carson	-7946
▁Twenty	-7947
▁Within	-7948
▁ancest	-7949
▁closer	-7950
▁formal	-7951
▁global	-7952
▁listen	-7953
▁pepper	-7954
▁satisf	-7955
▁spoons	-7956
▁treats	-7957
▁vessel	-7958
▁Barbara	-7959
▁Masters	-7960
▁Simpson	-7961
▁Stories	-7962
▁Swedish	-7963
▁consult	-7964
▁erasers	-7965
▁existed	-7966
▁farther	-7967
▁offices	-7968
▁operate	-7969
▁reality	-7970
▁victims	-7971
stitution	-7972
urricanes	-7973
▁Croatian	-7974
▁Djokovic	-7975
▁Harrison	-7976
▁approved	-7977
▁diameter	-7978
▁discover	-7979
▁equipped	-7980
▁governor	-7981
▁identity	-7982
▁isolated	-7983
▁programs	-7984
▁villages	-7985
▁accompany	-7986
▁compounds	-7987
▁emergency	-7988
▁involving	-7989
▁musicians	-7990
▁seashells	-7991
▁Television	-7992
▁Independent	-7993
▁Netherlands	-7994
▁Shakespeare	-7995
▁circulation	-7996
▁inspiration	-7997
▁involvement	-7998
▁rectangular	-7999
▁incorporated	-8000
▁controversial	-8001
▁relationships	-8002
DOT	-8003
cru	-8004
dal	-8005
ggy	-8006
hol	-8007
lyn	-8008
oom	-8009
acon	-8010
anth	-8011
burn	-8012
iary	-8013
oren	-8014
▁Dod	-8015
▁Hor	-8016
▁Lud	-8017
▁Pam	-8018
▁Ren	-8019
▁hyp	-8020
▁lin	-8021
apped	-8022
emies	-8023
isler	-8024
onder	-8025
ramid	-8026
rator	-8027
uable	-8028
wered	-8029
▁Bald	-8030
▁Sean	-8031
▁aged	-8032
▁ants	-8033
▁beef	-8034
▁blow	-8035
▁deem	-8036
▁lane	-8037
▁pill	-8038
▁pure	-8039
▁soul	-8040
▁wrap	-8041
imeter	-8042
orship	-8043
▁Girls	-8044
▁Peach	-8045
▁Sorra	-8046
▁Third	-8047
▁allig	-8048
▁clock	-8049
▁cocon	-8050
▁lists	-8051
▁maint	-8052
▁speak	-8053
▁steak	-8054
▁steep	-8055
▁wrest	-8056
amental	-8057
talions	-8058
▁Allied	-8059
▁Carlos	-8060
▁Carrie	-8061
▁Having	-8062
▁Rifles	-8063
▁burial	-8064
▁cherry	-8065
▁corner	-8066
▁ensure	-8067
▁fungus	-8068
▁grocer	-8069
▁mathem	-8070
▁poison	-8071
▁prohib	-8072
▁refers	-8073
▁sweets	-8074
▁temple	-8075
▁washed	-8076
▁wealth	-8077
▁Arsenal	-8078
▁amateur	-8079
▁biggest	-8080
▁feeling	-8081
▁passage	-8082
▁rabbits	-8083
▁reveals	-8084
▁settled	-8085
▁stuffed	-8086
▁talking	-8087
▁Jennifer	-8088
▁annually	-8089
▁colonial	-8090
▁counties	-8091
▁dialogue	-8092
▁disaster	-8093
▁parallel	-8094
▁province	-8095
▁remnants	-8096
▁studying	-8097
▁Catechism	-8098
▁indicated	-8099
▁installed	-8100
▁portrayed	-8101
▁preferred	-8102
▁selection	-8103
ultaneously	-8104
▁Originally	-8105
▁criticised	-8106
▁encouraged	-8107
▁nomination	-8108
▁scientific	-8109
▁controversy	-8110
▁observations	-8111
▁unsuccessful	-8112
▁archaeologist	-8113
EC	-8114
PA	-8115
ba	-8116
ns	-8117
aya	-8118
esh	-8119
ima	-8120
imp	-8121
kes	-8122
low	-8123
apse	-8124
ayla	-8125
dles	-8126
fare	-8127
rich	-8128
uffy	-8129
▁Dis	-8130
▁Kel	-8131
▁NBC	-8132
▁NDH	-8133
▁spl	-8134
akery	-8135
arded	-8136
esses	-8137
ifted	-8138
oyage	-8139
▁Aman	-8140
▁Bush	-8141
▁Coll	-8142
▁Fair	-8143
▁Real	-8144
▁Todd	-8145
▁hear	-8146
▁mini	-8147
▁obst	-8148
▁pole	-8149
▁sink	-8150
▁tack	-8151
irates	-8152
uppies	-8153
weight	-8154
▁Baker	-8155
▁Pryce	-8156
▁brick	-8157
▁diagn	-8158
▁fires	-8159
▁forty	-8160
▁inaug	-8161
▁lanes	-8162
▁recur	-8163
entures	-8164
iveness	-8165
ossible	-8166
owntown	-8167
▁Harold	-8168
▁Player	-8169
▁citing	-8170
▁cousin	-8171
▁doctor	-8172
▁dozens	-8173
▁easily	-8174
▁garage	-8175
▁hosted	-8176
▁inland	-8177
▁partly	-8178
▁seemed	-8179
▁styles	-8180
▁underw	-8181
▁useful	-8182
▁Kenneth	-8183
▁Yankees	-8184
▁compete	-8185
▁cutting	-8186
▁recover	-8187
▁starred	-8188
▁averaged	-8189
▁citizens	-8190
▁exercise	-8191
▁injuries	-8192
▁promised	-8193
▁purposes	-8194
▁releases	-8195
▁retained	-8196
▁schedule	-8197
▁segments	-8198
▁squadron	-8199
▁westward	-8200
▁Cathedral	-8201
▁Frederick	-8202
▁commanded	-8203
▁implement	-8204
▁interpret	-8205
▁personnel	-8206
▁influences	-8207
▁scientists	-8208
▁supporters	-8209
▁techniques	-8210
▁destruction	-8211
▁legislation	-8212
▁organizations	-8213
▁reconstruction	-8214
▁characteristics	-8215
NC	-8216
aku	-8217
bro	-8218
irs	-8219
mun	-8220
olt	-8221
oni	-8222
▁Ko	-8223
▁Op	-8224
anti	-8225
game	-8226
rain	-8227
roph	-8228
vals	-8229
▁Bow	-8230
▁Dom	-8231
▁Dri	-8232
▁Hud	-8233
▁Mah	-8234
▁Mos	-8235
▁avo	-8236
▁mir	-8237
▁nep	-8238
atson	-8239
flies	-8240
inary	-8241
itter	-8242
level	-8243
mouth	-8244
night	-8245
ounce	-8246
rophy	-8247
stick	-8248
ureau	-8249
velop	-8250
▁Corb	-8251
▁Mack	-8252
▁Mand	-8253
▁Rhys	-8254
▁clar	-8255
▁mice	-8256
▁mode	-8257
▁myst	-8258
▁nurs	-8259
▁tele	-8260
ctions	-8261
inated	-8262
▁Carre	-8263
▁Cress	-8264
▁Found	-8265
▁Guide	-8266
▁alleg	-8267
▁blank	-8268
▁conqu	-8269
▁edges	-8270
▁marry	-8271
▁marsh	-8272
▁multi	-8273
▁persp	-8274
▁persu	-8275
▁posts	-8276
▁rides	-8277
▁semif	-8278
▁sight	-8279
rations	-8280
▁Grammy	-8281
▁Murray	-8282
▁Norman	-8283
▁Telugu	-8284
▁afford	-8285
▁carved	-8286
▁counts	-8287
▁demand	-8288
▁linked	-8289
▁liquid	-8290
▁parent	-8291
▁parish	-8292
▁regist	-8293
▁ritual	-8294
▁sharks	-8295
▁shorts	-8296
▁spirit	-8297
▁Sorraia	-8298
▁acclaim	-8299
▁adapted	-8300
▁aggress	-8301
▁bicycle	-8302
▁collaps	-8303
▁crosses	-8304
▁engines	-8305
▁forcing	-8306
▁forests	-8307
▁knocked	-8308
▁massive	-8309
▁peppers	-8310
▁storage	-8311
▁Children	-8312
▁Historic	-8313
▁Romanian	-8314
▁Subtract	-8315
▁covering	-8316
▁dramatic	-8317
▁overtime	-8318
▁partners	-8319
▁politics	-8320
▁predomin	-8321
▁restored	-8322
▁severely	-8323
▁Christine	-8324
▁Currently	-8325
▁Stephanie	-8326
▁Territory	-8327
▁Transport	-8328
▁beautiful	-8329
▁elections	-8330
▁groceries	-8331
▁monuments	-8332
▁occasions	-8333
▁victories	-8334
▁description	-8335
▁excavations	-8336
▁influential	-8337
▁interaction	-8338
▁difficulties	-8339
/$	-8340
ti	-8341
zo	-8342
don	-8343
ika	-8344
ira	-8345
uty	-8346
vet	-8347
vor	-8348
▁Mu	-8349
▁au	-8350
▁ru	-8351
avar	-8352
ctor	-8353
hist	-8354
ilty	-8355
osis	-8356
▁Cop	-8357
▁Fig	-8358
▁Jas	-8359
▁McE	-8360
▁Wag	-8361
▁loy	-8362
▁tra	-8363
amese	-8364
endar	-8365
itars	-8366
iture	-8367
liter	-8368
phone	-8369
▁Bang	-8370
▁Belg	-8371
▁Cant	-8372
▁Cass	-8373
▁Mult	-8374
▁Soon	-8375
▁Wand	-8376
▁chef	-8377
▁exha	-8378
▁gust	-8379
▁impl	-8380
▁pile	-8381
▁rich	-8382
▁scat	-8383
▁stem	-8384
▁tone	-8385
orough	-8386
ources	-8387
▁Aaron	-8388
▁Blood	-8389
▁Cater	-8390
▁Chand	-8391
▁Congo	-8392
▁Cyrus	-8393
▁Julie	-8394
▁Women	-8395
▁brand	-8396
▁compr	-8397
▁macar	-8398
▁merch	-8399
▁micro	-8400
▁pints	-8401
▁prove	-8402
▁rated	-8403
▁trust	-8404
▁Brooks	-8405
▁Celtic	-8406
▁Giants	-8407
▁Heaven	-8408
▁Square	-8409
▁Steven	-8410
▁Warren	-8411
▁asking	-8412
▁baking	-8413
▁bushel	-8414
▁choose	-8415
▁estate	-8416
▁extent	-8417
▁lumber	-8418
▁occurs	-8419
▁thrown	-8420
▁undert	-8421
▁Federal	-8422
▁Gardner	-8423
▁Maurice	-8424
▁amongst	-8425
▁athlete	-8426
▁balloon	-8427
▁channel	-8428
▁constit	-8429
▁courses	-8430
▁keeping	-8431
▁pumpkin	-8432
▁repairs	-8433
▁Research	-8434
▁admitted	-8435
▁answered	-8436
▁composer	-8437
▁literary	-8438
▁overwhel	-8439
▁superior	-8440
▁Palestine	-8441
▁Recording	-8442
▁Similarly	-8443
▁acknowled	-8444
▁audiences	-8445
▁defenders	-8446
▁discussed	-8447
▁divisions	-8448
▁documents	-8449
▁northward	-8450
▁otherwise	-8451
▁sculpture	-8452
▁Vietnamese	-8453
▁journalist	-8454
▁suggesting	-8455
▁considering	-8456
▁populations	-8457
▁scholarship	-8458
▁distribution	-8459
▁participants	-8460
▁strengthened	-8461
▁circumstances	-8462
▁representative	-8463
(.	-8464
Ch	-8465
ji	-8466
yo	-8467
aho	-8468
ele	-8469
gov	-8470
obe	-8471
owa	-8472
pus	-8473
rif	-8474
rix	-8475
▁Gw	-8476
▁Jr	-8477
auce	-8478
bors	-8479
etch	-8480
iney	-8481
inge	-8482
iors	-8483
lock	-8484
roit	-8485
umps	-8486
unes	-8487
▁Aub	-8488
▁Las	-8489
▁Neb	-8490
▁Pan	-8491
▁Say	-8492
▁Stu	-8493
▁Tok	-8494
▁USD	-8495
▁jog	-8496
▁phr	-8497
abled	-8498
acruz	-8499
inian	-8500
ipped	-8501
orado	-8502
orney	-8503
rants	-8504
rates	-8505
▁Bell	-8506
▁Cand	-8507
▁Diam	-8508
▁FIFA	-8509
▁Holl	-8510
▁Luke	-8511
▁Show	-8512
▁Stav	-8513
▁Veer	-8514
▁Your	-8515
▁bisc	-8516
▁exit	-8517
▁hens	-8518
▁orch	-8519
▁rode	-8520
▁styl	-8521
▁tips	-8522
issipp	-8523
rected	-8524
umbers	-8525
▁Categ	-8526
▁Idaho	-8527
▁Laure	-8528
▁Lucas	-8529
▁Megan	-8530
▁Point	-8531
▁Xenon	-8532
▁bulbs	-8533
▁essay	-8534
▁quart	-8535
▁renew	-8536
▁worms	-8537
▁youth	-8538
▁Austin	-8539
▁Branch	-8540
▁Bureau	-8541
▁Caesar	-8542
▁Justin	-8543
▁Miller	-8544
▁banana	-8545
▁boxing	-8546
▁chicks	-8547
▁ruling	-8548
▁tomato	-8549
▁Cardiff	-8550
▁Clinton	-8551
▁Detroit	-8552
▁Express	-8553
▁Islands	-8554
▁benefit	-8555
▁ceiling	-8556
▁consume	-8557
▁deliber	-8558
▁guitars	-8559
▁insects	-8560
▁jumping	-8561
▁martial	-8562
▁neutral	-8563
▁prepare	-8564
▁singers	-8565
▁Building	-8566
▁Category	-8567
▁Veracruz	-8568
▁adjacent	-8569
▁criminal	-8570
▁drawings	-8571
▁drinking	-8572
▁necklace	-8573
▁premiere	-8574
▁withdrew	-8575
▁Cresswell	-8576
▁attacking	-8577
▁departure	-8578
▁essential	-8579
▁expansion	-8580
▁extension	-8581
▁languages	-8582
▁electronic	-8583
▁theatrical	-8584
▁preparation	-8585
▁protagonist	-8586
▁tablespoons	-8587
▁responsibility	-8588
Hg	-8589
IA	-8590
gl	-8591
mi	-8592
iri	-8593
ito	-8594
mit	-8595
yph	-8596
▁Ll	-8597
adow	-8598
aley	-8599
avis	-8600
char	-8601
oves	-8602
▁Cob	-8603
▁Guy	-8604
▁Lab	-8605
▁See	-8606
▁Who	-8607
▁Wik	-8608
▁Zoo	-8609
▁cul	-8610
▁hur	-8611
▁sed	-8612
▁ump	-8613
child	-8614
inson	-8615
▁Back	-8616
▁Joan	-8617
▁Kirk	-8618
▁Sara	-8619
▁Wend	-8620
▁cave	-8621
▁dens	-8622
▁forg	-8623
▁godd	-8624
▁ille	-8625
▁mere	-8626
▁sang	-8627
▁sche	-8628
earing	-8629
rating	-8630
rupted	-8631
rystal	-8632
▁Beach	-8633
▁Bible	-8634
▁Grade	-8635
▁Press	-8636
▁Prior	-8637
▁Valve	-8638
▁comed	-8639
▁doors	-8640
▁moral	-8641
▁queen	-8642
▁surpr	-8643
▁trash	-8644
igation	-8645
olithic	-8646
▁Briggs	-8647
▁Cullen	-8648
▁Dennis	-8649
▁Finals	-8650
▁Madrid	-8651
▁Olivia	-8652
▁Peters	-8653
▁Silver	-8654
▁anyone	-8655
▁batter	-8656
▁commit	-8657
▁convin	-8658
▁excess	-8659
▁guilty	-8660
▁inning	-8661
▁manusc	-8662
▁monkey	-8663
▁remark	-8664
▁resign	-8665
▁rubber	-8666
▁scoops	-8667
▁treaty	-8668
▁weapon	-8669
▁Amanita	-8670
▁Bennett	-8671
▁Channel	-8672
▁Dorothy	-8673
▁Mathews	-8674
▁centers	-8675
▁cheesec	-8676
▁climbed	-8677
▁context	-8678
▁hunting	-8679
▁inhabit	-8680
▁packets	-8681
▁portray	-8682
▁promote	-8683
▁Colorado	-8684
▁Jonathan	-8685
▁announce	-8686
▁claiming	-8687
▁delivers	-8688
▁happened	-8689
▁imprison	-8690
▁measured	-8691
▁memorial	-8692
▁pancakes	-8693
▁pregnant	-8694
▁relative	-8695
▁semester	-8696
▁Pattycake	-8697
▁elevation	-8698
▁programme	-8699
▁suspended	-8700
▁Chronicles	-8701
▁Mississipp	-8702
▁apparently	-8703
▁colleagues	-8704
▁supplement	-8705
▁Australians	-8706
▁archaeology	-8707
▁interesting	-8708
▁conservation	-8709
hi	-8710
ami	-8711
▁et	-8712
aria	-8713
aved	-8714
erek	-8715
ilst	-8716
olph	-8717
page	-8718
rast	-8719
reen	-8720
▁Bad	-8721
▁Dud	-8722
▁Nev	-8723
▁Ont	-8724
▁Tyl	-8725
▁Vic	-8726
▁dod	-8727
▁ori	-8728
eries	-8729
ersed	-8730
icken	-8731
oster	-8732
▁Ever	-8733
▁Hope	-8734
▁Kody	-8735
▁Life	-8736
▁Maya	-8737
▁Nash	-8738
▁Pohl	-8739
▁Weir	-8740
▁copy	-8741
▁deer	-8742
▁easy	-8743
▁inHg	-8744
▁sunk	-8745
▁surg	-8746
▁util	-8747
lights	-8748
person	-8749
writer	-8750
▁Const	-8751
▁Derek	-8752
▁Devin	-8753
▁Diane	-8754
▁Diego	-8755
▁Evans	-8756
▁Neves	-8757
▁Rugby	-8758
▁Those	-8759
▁Wicca	-8760
▁analy	-8761
▁cubes	-8762
▁deter	-8763
▁hills	-8764
▁honey	-8765
▁jewel	-8766
▁memor	-8767
▁piggy	-8768
▁renov	-8769
▁sweet	-8770
▁tight	-8771
▁tools	-8772
▁trick	-8773
usaders	-8774
▁Alfred	-8775
▁Ingres	-8776
▁Intern	-8777
▁Janice	-8778
▁Trevor	-8779
▁Wagner	-8780
▁cooper	-8781
▁deemed	-8782
▁engage	-8783
▁format	-8784
▁ranges	-8785
▁resemb	-8786
▁reward	-8787
▁venues	-8788
▁visual	-8789
▁Commons	-8790
▁Ontario	-8791
▁Overall	-8792
▁Writing	-8793
▁bearing	-8794
▁blocked	-8795
▁chronic	-8796
▁coaster	-8797
▁designs	-8798
▁graders	-8799
▁moments	-8800
▁politic	-8801
▁pyramid	-8802
▁reaches	-8803
▁reserve	-8804
▁segment	-8805
▁weights	-8806
▁Campbell	-8807
▁Hawaiian	-8808
▁appropri	-8809
▁consumed	-8810
▁explains	-8811
▁highways	-8812
▁struggle	-8813
▁sweaters	-8814
▁weekdays	-8815
▁Wanderers	-8816
▁battlecru	-8817
▁considers	-8818
▁objective	-8819
▁premiered	-8820
▁preparing	-8821
▁preserved	-8822
▁residence	-8823
▁sequences	-8824
▁teaspoons	-8825
▁containers	-8826
▁mechanical	-8827
▁understand	-8828
▁application	-8829
▁settlements	-8830
▁agricultural	-8831
ASP	-8832
col	-8833
eas	-8834
run	-8835
▁MP	-8836
▁PC	-8837
azer	-8838
gars	-8839
iper	-8840
mann	-8841
otes	-8842
real	-8843
rous	-8844
rypt	-8845
▁Fei	-8846
▁McD	-8847
▁Pot	-8848
▁Rap	-8849
▁Sle	-8850
▁Son	-8851
▁von	-8852
byter	-8853
odrom	-8854
orous	-8855
uther	-8856
uthor	-8857
▁Cape	-8858
▁Dais	-8859
▁Dawn	-8860
▁Lily	-8861
▁chop	-8862
▁cris	-8863
▁drug	-8864
▁jury	-8865
▁seek	-8866
▁turb	-8867
▁vamp	-8868
azines	-8869
encies	-8870
penter	-8871
ristan	-8872
▁Britt	-8873
▁Burns	-8874
▁Eagle	-8875
▁Keith	-8876
▁Magic	-8877
▁Marie	-8878
▁Naval	-8879
▁Swiss	-8880
▁Techn	-8881
▁Usher	-8882
▁acycl	-8883
▁beats	-8884
▁caves	-8885
▁fifty	-8886
▁mayor	-8887
▁opens	-8888
▁prime	-8889
▁rates	-8890
▁relie	-8891
▁rifle	-8892
▁rugby	-8893
▁snake	-8894
▁spoke	-8895
▁subsc	-8896
▁surve	-8897
▁tasks	-8898
▁toile	-8899
▁trend	-8900
▁tubes	-8901
assador	-8902
▁Arabic	-8903
▁Kendra	-8904
▁Magdal	-8905
▁Sisler	-8906
▁Watson	-8907
▁aggreg	-8908
▁astron	-8909
▁bakery	-8910
▁frames	-8911
▁invent	-8912
▁paints	-8913
▁praise	-8914
▁pursue	-8915
▁stable	-8916
▁wishes	-8917
▁worker	-8918
▁Belgian	-8919
▁Country	-8920
▁Nettles	-8921
▁Tristan	-8922
▁complic	-8923
▁consequ	-8924
▁filling	-8925
▁habitat	-8926
▁ranging	-8927
▁rebuilt	-8928
▁trouble	-8929
▁Margaret	-8930
▁ceratops	-8931
▁defended	-8932
▁entitled	-8933
▁executed	-8934
▁garrison	-8935
▁hundreds	-8936
▁realizes	-8937
▁regiment	-8938
▁visiting	-8939
▁weekends	-8940
▁Nevesinje	-8941
▁Stavanger	-8942
▁entertain	-8943
▁rectangle	-8944
▁specimens	-8945
▁stationed	-8946
▁artificial	-8947
▁battalions	-8948
▁businesses	-8949
▁contribute	-8950
▁photograph	-8951
▁publishing	-8952
▁recognised	-8953
▁resistance	-8954
▁respective	-8955
▁Mississippi	-8956
▁consumption	-8957
▁grandmother	-8958
▁inscription	-8959
▁opportunities	-8960
ja	-8961
aco	-8962
adi	-8963
ban	-8964
bre	-8965
esi	-8966
lam	-8967
mph	-8968
oux	-8969
ski	-8970
wan	-8971
▁Tu	-8972
aleb	-8973
alog	-8974
fire	-8975
ifth	-8976
isle	-8977
rett	-8978
▁Cec	-8979
▁Han	-8980
▁Hur	-8981
▁Imm	-8982
▁Kam	-8983
▁Rud	-8984
▁Ted	-8985
▁Und	-8986
▁ads	-8987
▁bab	-8988
▁lap	-8989
▁ome	-8990
avier	-8991
essee	-8992
organ	-8993
zegov	-8994
▁Deep	-8995
▁Ders	-8996
▁Gill	-8997
▁Kong	-8998
▁Look	-8999
▁Lost	-9000
▁Mach	-9001
▁Much	-9002
▁Such	-9003
▁Verm	-9004
▁bron	-9005
▁canc	-9006
▁dish	-9007
▁fled	-9008
▁herd	-9009
▁huge	-9010
▁offs	-9011
▁salt	-9012
▁wire	-9013
▁wolf	-9014
boards	-9015
ffield	-9016
howitz	-9017
ishops	-9018
linger	-9019
street	-9020
thirds	-9021
urgers	-9022
yphoon	-9023
▁Asian	-9024
▁Daisy	-9025
▁Dover	-9026
▁Eight	-9027
▁Front	-9028
▁Hills	-9029
▁Marge	-9030
▁Prest	-9031
▁Switz	-9032
▁Trust	-9033
▁absol	-9034
▁alter	-9035
▁buses	-9036
▁chann	-9037
▁fatal	-9038
▁keeps	-9039
▁kinds	-9040
▁rhyme	-9041
▁snack	-9042
▁solar	-9043
unction	-9044
valiers	-9045
▁Albums	-9046
▁Donald	-9047
▁Hudson	-9048
▁Tigers	-9049
▁copper	-9050
▁enters	-9051
▁loaded	-9052
▁overlo	-9053
▁sailed	-9054
atically	-9055
▁Brandon	-9056
▁Christi	-9057
▁Coldrum	-9058
▁Justice	-9059
▁Section	-9060
▁Village	-9061
▁acyclic	-9062
▁buttons	-9063
▁delayed	-9064
▁emperor	-9065
▁factors	-9066
▁picking	-9067
▁raising	-9068
▁rushing	-9069
▁spotted	-9070
▁Herzegov	-9071
▁Memorial	-9072
▁biscuits	-9073
▁constant	-9074
▁downtown	-9075
▁emphasis	-9076
▁festival	-9077
▁informed	-9078
▁moderate	-9079
▁modified	-9080
▁opponent	-9081
▁outbreak	-9082
▁restrict	-9083
▁striking	-9084
▁upgraded	-9085
ifications	-9086
▁Champions	-9087
▁Tennessee	-9088
▁Victorian	-9089
▁elaborate	-9090
▁envelopes	-9091
▁magazines	-9092
▁operating	-9093
▁prevented	-9094
▁submitted	-9095
▁uncertain	-9096
▁Chevaliers	-9097
▁Dershowitz	-9098
▁Management	-9099
▁Protestant	-9100
▁afterwards	-9101
▁profession	-9102
▁accommodate	-9103
▁communication	-9104
va	-9105
ebe	-9106
eld	-9107
erk	-9108
fly	-9109
lor	-9110
oma	-9111
war	-9112
▁AD	-9113
▁Eg	-9114
▁Pa	-9115
▁iP	-9116
▁id	-9117
anza	-9118
apur	-9119
enic	-9120
epts	-9121
eron	-9122
ieth	-9123
ilda	-9124
izon	-9125
lane	-9126
olid	-9127
ords	-9128
otic	-9129
roke	-9130
scop	-9131
▁Abd	-9132
▁Cov	-9133
▁Deb	-9134
▁IOC	-9135
▁MLB	-9136
▁McM	-9137
▁Tar	-9138
▁gor	-9139
▁tul	-9140
▁tut	-9141
alymp	-9142
based	-9143
bound	-9144
ceeds	-9145
ching	-9146
eling	-9147
iking	-9148
inery	-9149
izers	-9150
▁Beau	-9151
▁Olaf	-9152
▁Sony	-9153
▁Wrap	-9154
▁alle	-9155
▁core	-9156
▁feud	-9157
▁gray	-9158
▁heat	-9159
▁ibis	-9160
▁outl	-9161
▁rush	-9162
▁soup	-9163
▁tort	-9164
▁twin	-9165
▁ware	-9166
achary	-9167
action	-9168
estyle	-9169
orious	-9170
▁Canal	-9171
▁Carly	-9172
▁Derff	-9173
▁Hindu	-9174
▁Media	-9175
▁Rocky	-9176
▁Story	-9177
▁Treat	-9178
▁Vegas	-9179
▁branc	-9180
▁crews	-9181
▁cycle	-9182
▁doubt	-9183
▁feels	-9184
▁forth	-9185
▁kills	-9186
▁lasts	-9187
▁lions	-9188
▁overl	-9189
▁refer	-9190
▁siege	-9191
▁simpl	-9192
cluding	-9193
itarian	-9194
▁Angela	-9195
▁Corpor	-9196
▁Corpus	-9197
▁Hunter	-9198
▁Mother	-9199
▁Multip	-9200
▁Stuart	-9201
▁agency	-9202
▁banned	-9203
▁cinema	-9204
▁commem	-9205
▁donate	-9206
▁rabbit	-9207
▁runway	-9208
▁scheme	-9209
▁sounds	-9210
issioned	-9211
▁Jackets	-9212
▁artwork	-9213
▁coordin	-9214
▁cougars	-9215
▁credits	-9216
▁demands	-9217
▁denomin	-9218
▁extreme	-9219
▁farmers	-9220
▁jewelry	-9221
▁joining	-9222
▁manages	-9223
▁starter	-9224
▁strings	-9225
▁turrets	-9226
stituting	-9227
▁Paralymp	-9228
▁approval	-9229
▁armament	-9230
▁assisted	-9231
▁channels	-9232
▁counting	-9233
▁describe	-9234
▁dominant	-9235
▁donation	-9236
▁internal	-9237
▁portions	-9238
▁proposal	-9239
▁Sheffield	-9240
▁attendees	-9241
▁carriages	-9242
▁decorated	-9243
▁interests	-9244
▁narrative	-9245
▁purchases	-9246
▁requested	-9247
onnaissance	-9248
▁Bradstreet	-9249
▁indicating	-9250
▁occupation	-9251
▁thereafter	-9252
▁volunteers	-9253
▁Herzegovina	-9254
▁Nightingale	-9255
▁Switzerland	-9256
▁appointment	-9257
▁distinctive	-9258
▁manufacture	-9259
▁residential	-9260
▁establishing	-9261
DS	-9262
SA	-9263
ASA	-9264
abs	-9265
agi	-9266
gam	-9267
ige	-9268
ksh	-9269
lan	-9270
oln	-9271
uki	-9272
▁Cy	-9273
▁NL	-9274
▁Ut	-9275
▁ma	-9276
adys	-9277
anne	-9278
cont	-9279
ibar	-9280
icul	-9281
omic	-9282
onto	-9283
oria	-9284
oust	-9285
pled	-9286
usic	-9287
▁Sem	-9288
▁lip	-9289
▁liv	-9290
anyon	-9291
arest	-9292
arket	-9293
books	-9294
cover	-9295
istan	-9296
piece	-9297
reams	-9298
reted	-9299
shore	-9300
▁Ariz	-9301
▁Cart	-9302
▁Curt	-9303
▁Halo	-9304
▁Joey	-9305
▁Late	-9306
▁Linc	-9307
▁Pier	-9308
▁acre	-9309
▁brid	-9310
▁clin	-9311
▁dies	-9312
▁enth	-9313
▁furn	-9314
▁lion	-9315
▁nave	-9316
▁nice	-9317
▁reop	-9318
Americ	-9319
atched	-9320
rising	-9321
▁Anglo	-9322
▁Ghost	-9323
▁Isesi	-9324
▁Julio	-9325
▁Serbs	-9326
▁Tanya	-9327
▁Terry	-9328
▁Trond	-9329
▁accum	-9330
▁advis	-9331
▁ammun	-9332
▁badly	-9333
▁basil	-9334
▁files	-9335
▁judge	-9336
▁manga	-9337
▁ninet	-9338
legraph	-9339
minster	-9340
vention	-9341
▁Bright	-9342
▁Russia	-9343
▁Sweden	-9344
▁agents	-9345
▁cattle	-9346
▁comics	-9347
▁cooler	-9348
▁crisis	-9349
▁ethnic	-9350
▁expert	-9351
▁handed	-9352
▁margin	-9353
▁propag	-9354
▁retail	-9355
▁rising	-9356
▁satell	-9357
▁skills	-9358
▁strict	-9359
▁switch	-9360
▁tenure	-9361
▁therap	-9362
▁throne	-9363
▁toilet	-9364
▁vertex	-9365
▁voiced	-9366
inations	-9367
▁Belgium	-9368
▁Haitian	-9369
▁Lincoln	-9370
▁Railway	-9371
▁Special	-9372
▁Species	-9373
▁Toronto	-9374
▁Welling	-9375
▁altered	-9376
▁columns	-9377
▁dressed	-9378
▁exposed	-9379
▁feeding	-9380
▁grounds	-9381
▁infrast	-9382
▁partner	-9383
▁ranking	-9384
velopment	-9385
▁Columbus	-9386
▁Mitchell	-9387
▁concerts	-9388
▁finishes	-9389
▁mathemat	-9390
▁payments	-9391
▁resigned	-9392
▁Trondheim	-9393
▁Woodhouse	-9394
▁collapsed	-9395
▁depending	-9396
▁destroyer	-9397
▁displayed	-9398
▁elephants	-9399
▁favorable	-9400
▁generated	-9401
▁partially	-9402
▁recommend	-9403
▁reflected	-9404
▁travelled	-9405
▁underwent	-9406
▁Foundation	-9407
▁ammunition	-9408
▁biographer	-9409
▁controller	-9410
▁demolished	-9411
▁engagement	-9412
▁hamburgers	-9413
▁impression	-9414
▁registered	-9415
▁transition	-9416
▁Derfflinger	-9417
▁Subtracting	-9418
▁advertising	-9419
▁encountered	-9420
▁exclusively	-9421
▁experiences	-9422
▁grandfather	-9423
▁tournaments	-9424
▁simultaneously	-9425
Xe	-9426
ii	-9427
ée	-9428
III	-9429
hum	-9430
oto	-9431
rik	-9432
udo	-9433
zac	-9434
▁CO	-9435
▁EC	-9436
▁WN	-9437
Grom	-9438
acre	-9439
aman	-9440
erne	-9441
kens	-9442
olds	-9443
ophy	-9444
ouri	-9445
oyle	-9446
riff	-9447
rine	-9448
vent	-9449
▁Dog	-9450
▁Fem	-9451
▁HNC	-9452
▁Non	-9453
▁Pak	-9454
▁Pel	-9455
▁Tro	-9456
▁Web	-9457
▁Wol	-9458
▁caf	-9459
▁cuc	-9460
▁fer	-9461
▁mud	-9462
▁nav	-9463
▁tag	-9464
▁web	-9465
▁wel	-9466
andom	-9467
brace	-9468
dream	-9469
ewise	-9470
odore	-9471
regon	-9472
ucted	-9473
▁Boys	-9474
▁Cind	-9475
▁Magn	-9476
▁Shim	-9477
▁Toby	-9478
▁Whit	-9479
▁anch	-9480
▁conj	-9481
▁duty	-9482
▁evil	-9483
▁fasc	-9484
▁fate	-9485
▁guid	-9486
▁mbar	-9487
▁murd	-9488
▁pale	-9489
▁punt	-9490
atinum	-9491
izards	-9492
▁Actor	-9493
▁Dream	-9494
▁Kings	-9495
▁Ridge	-9496
▁Witch	-9497
▁altar	-9498
▁angle	-9499
▁antic	-9500
▁apply	-9501
▁clust	-9502
▁coats	-9503
▁faces	-9504
▁grain	-9505
▁grape	-9506
▁grave	-9507
▁liked	-9508
▁loads	-9509
▁smart	-9510
▁truth	-9511
▁valid	-9512
▁Corbet	-9513
▁Creutz	-9514
▁Morgan	-9515
▁Observ	-9516
▁Phoebe	-9517
▁Queens	-9518
▁Survey	-9519
▁altarp	-9520
▁argues	-9521
▁aspect	-9522
▁beings	-9523
▁bishop	-9524
▁cereal	-9525
▁circle	-9526
▁condem	-9527
▁custom	-9528
▁divers	-9529
▁fundra	-9530
▁integr	-9531
▁operas	-9532
▁prompt	-9533
▁rained	-9534
▁stream	-9535
▁thinks	-9536
▁thrice	-9537
▁tokens	-9538
▁toured	-9539
▁trials	-9540
ermarket	-9541
▁Arizona	-9542
▁Dynasty	-9543
▁Persian	-9544
▁Romania	-9545
▁Wrapped	-9546
▁alleged	-9547
▁buckets	-9548
▁clearly	-9549
▁combine	-9550
▁dispute	-9551
▁enemies	-9552
▁erected	-9553
▁gaining	-9554
▁gallery	-9555
▁handled	-9556
▁intense	-9557
▁notably	-9558
▁passion	-9559
▁peanuts	-9560
▁visible	-9561
▁Baseball	-9562
▁Daydream	-9563
▁Delaware	-9564
▁Hamilton	-9565
▁Register	-9566
▁advertis	-9567
▁designer	-9568
▁exposure	-9569
▁generals	-9570
▁numbered	-9571
▁portrait	-9572
▁recovery	-9573
▁remarked	-9574
▁solution	-9575
▁suitable	-9576
ortunately	-9577
▁directors	-9578
▁engineers	-9579
▁execution	-9580
▁organised	-9581
▁professor	-9582
▁qualified	-9583
▁relegated	-9584
▁reviewers	-9585
▁struggled	-9586
▁Allosaurus	-9587
▁compliment	-9588
▁eliminated	-9589
▁impossible	-9590
▁permission	-9591
▁electricity	-9592
▁engineering	-9593
▁intensified	-9594
▁restoration	-9595
▁Organization	-9596
▁Substituting	-9597
▁collaboration	-9598
▁distinguished	-9599
▁reconnaissance	-9600
+(	-9601
ES	-9602
SP	-9603
VP	-9604
tz	-9605
asa	-9606
aza	-9607
fer	-9608
isp	-9609
zed	-9610
▁AT	-9611
▁Va	-9612
▁ax	-9613
bits	-9614
hill	-9615
imen	-9616
quet	-9617
rina	-9618
rior	-9619
▁Dot	-9620
▁Est	-9621
▁Eug	-9622
▁Kur	-9623
▁Lil	-9624
▁McN	-9625
▁Our	-9626
▁bra	-9627
▁mob	-9628
▁reh	-9629
aired	-9630
elsen	-9631
igins	-9632
lando	-9633
plete	-9634
quets	-9635
ricts	-9636
thren	-9637
ultan	-9638
▁Jain	-9639
▁Mick	-9640
▁Pict	-9641
▁Prin	-9642
▁Prom	-9643
▁Trek	-9644
▁Vand	-9645
▁Vice	-9646
▁WASP	-9647
▁Zanz	-9648
▁code	-9649
▁desk	-9650
▁gang	-9651
▁golf	-9652
▁saus	-9653
▁symp	-9654
▁vacu	-9655
blazer	-9656
incial	-9657
ivated	-9658
olence	-9659
▁Diana	-9660
▁Event	-9661
▁Freak	-9662
▁Linda	-9663
▁Nadal	-9664
▁Peggy	-9665
▁Scots	-9666
▁Space	-9667
▁Tales	-9668
▁Trees	-9669
▁acids	-9670
▁armor	-9671
▁aside	-9672
▁basin	-9673
▁consp	-9674
▁deity	-9675
▁frust	-9676
▁milit	-9677
▁poets	-9678
▁sauce	-9679
▁shear	-9680
▁unlik	-9681
▁upset	-9682
▁wears	-9683
▁whisk	-9684
illiant	-9685
▁Canyon	-9686
▁Chapel	-9687
▁Claire	-9688
▁Cooper	-9689
▁Dudley	-9690
▁Hoover	-9691
▁Oregon	-9692
▁Staley	-9693
▁babies	-9694
▁burger	-9695
▁cancel	-9696
▁culmin	-9697
▁encoun	-9698
▁flyers	-9699
▁marshm	-9700
▁papers	-9701
▁poorly	-9702
▁reprod	-9703
▁sevent	-9704
▁signal	-9705
▁spores	-9706
▁subsid	-9707
▁topped	-9708
▁unlike	-9709
ansfield	-9710
▁Ancient	-9711
▁Everton	-9712
▁Madonna	-9713
▁Orlando	-9714
▁Preston	-9715
▁backing	-9716
▁burning	-9717
▁chamber	-9718
▁closest	-9719
▁disband	-9720
▁founder	-9721
▁guppies	-9722
▁housing	-9723
▁posters	-9724
▁seeking	-9725
▁zombies	-9726
oceratops	-9727
▁aerodrom	-9728
▁articles	-9729
▁comments	-9730
▁cruisers	-9731
▁duration	-9732
▁leukemia	-9733
▁overseas	-9734
▁shoulder	-9735
▁smallest	-9736
▁thousand	-9737
▁vertical	-9738
▁Katherine	-9739
▁Palmyrene	-9740
▁batteries	-9741
▁champions	-9742
▁decisions	-9743
▁identical	-9744
▁initiated	-9745
▁neighbors	-9746
▁passenger	-9747
▁sentiment	-9748
▁adaptation	-9749
▁calculated	-9750
▁documented	-9751
▁punishment	-9752
▁recordings	-9753
▁Westminster	-9754
▁commandment	-9755
▁compilation	-9756
▁continental	-9757
▁personality	-9758
▁productions	-9759
▁supermarket	-9760
▁Independence	-9761
▁Nevertheless	-9762
▁accidentally	-9763
▁demonstrated	-9764
▁characterized	-9765
▁representation	-9766
jo	-9767
EFA	-9768
bag	-9769
bow	-9770
ods	-9771
▁ol	-9772
akim	-9773
aust	-9774
empl	-9775
inda	-9776
inet	-9777
iour	-9778
mers	-9779
mine	-9780
oken	-9781
opol	-9782
wing	-9783
▁Alg	-9784
▁DNA	-9785
▁Eth	-9786
▁Had	-9787
▁Jag	-9788
▁Kay	-9789
▁McL	-9790
▁Mes	-9791
▁Sat	-9792
▁Sin	-9793
▁Sky	-9794
▁pul	-9795
▁rig	-9796
adier	-9797
andra	-9798
burgh	-9799
etime	-9800
icide	-9801
icing	-9802
otype	-9803
shirt	-9804
tical	-9805
▁Chan	-9806
▁Educ	-9807
▁Ford	-9808
▁Gate	-9809
▁Girl	-9810
▁Khan	-9811
▁Lanc	-9812
▁Mara	-9813
▁Moon	-9814
▁Mort	-9815
▁Soph	-9816
▁Sora	-9817
▁UEFA	-9818
▁YouT	-9819
▁bore	-9820
▁bull	-9821
▁epic	-9822
▁mall	-9823
▁quit	-9824
▁shar	-9825
▁soci	-9826
▁vice	-9827
▁ward	-9828
▁wars	-9829
alling	-9830
ernoot	-9831
rolled	-9832
▁Brook	-9833
▁Bryan	-9834
▁Caleb	-9835
▁Davis	-9836
▁Guild	-9837
▁Korea	-9838
▁Leeds	-9839
▁Start	-9840
▁Tonin	-9841
▁Uncle	-9842
▁abund	-9843
▁airpl	-9844
▁anime	-9845
▁coinc	-9846
▁deleg	-9847
▁explo	-9848
▁falls	-9849
▁gains	-9850
▁innov	-9851
▁masks	-9852
▁punch	-9853
▁recon	-9854
▁salad	-9855
▁squir	-9856
▁stood	-9857
▁subst	-9858
▁tenth	-9859
▁tombs	-9860
▁trays	-9861
▁usual	-9862
ceeding	-9863
uctions	-9864
▁Beeton	-9865
▁Berlin	-9866
▁Bulgar	-9867
▁Julian	-9868
▁Nevada	-9869
▁Quiney	-9870
▁Urania	-9871
▁absent	-9872
▁bronze	-9873
▁chores	-9874
▁lawyer	-9875
▁legend	-9876
▁lemons	-9877
▁mortal	-9878
▁panels	-9879
▁parrot	-9880
▁priest	-9881
▁rental	-9882
▁sacred	-9883
▁statue	-9884
▁tempor	-9885
▁tissue	-9886
ervative	-9887
ospitals	-9888
▁Antonio	-9889
▁Francis	-9890
▁Stewart	-9891
▁Univers	-9892
▁depicts	-9893
▁surgery	-9894
▁telling	-9895
▁testing	-9896
▁tribute	-9897
▁warning	-9898
▁Cantrell	-9899
▁Zanzibar	-9900
▁collapse	-9901
▁formally	-9902
▁frequent	-9903
▁pitching	-9904
▁prompted	-9905
▁situated	-9906
▁Egyptians	-9907
▁celebrate	-9908
▁competing	-9909
▁convinced	-9910
▁depicting	-9911
▁donations	-9912
▁marketing	-9913
▁movements	-9914
▁orchestra	-9915
▁radiation	-9916
▁relatives	-9917
▁spiritual	-9918
▁Hellblazer	-9919
▁Vandernoot	-9920
▁Wellington	-9921
▁alligators	-9922
▁categories	-9923
▁concession	-9924
▁connecting	-9925
▁objectives	-9926
▁personally	-9927
▁successive	-9928
▁watermelon	-9929
▁immigration	-9930
▁perspective	-9931
▁predecessor	-9932
▁accompanying	-9933
▁architecture	-9934
▁assassination	-9935
▁environmental	-9936
▁understanding	-9937
).	-9938
CO	-9939
cm	-9940
ko	-9941
za	-9942
equ	-9943
oda	-9944
oub	-9945
thy	-9946
zes	-9947
▁Es	-9948
agen	-9949
aple	-9950
atha	-9951
emet	-9952
engu	-9953
half	-9954
oard	-9955
udes	-9956
▁Amb	-9957
▁Cad	-9958
▁Cla	-9959
▁Dak	-9960
▁Ful	-9961
▁Gam	-9962
▁Lad	-9963
▁Loy	-9964
▁Lyn	-9965
▁Nob	-9966
▁Pok	-9967
▁Raf	-9968
▁Unt	-9969
▁bol	-9970
▁gal	-9971
▁sad	-9972
ernon	-9973
grade	-9974
iller	-9975
▁Crab	-9976
▁Dram	-9977
▁Ivan	-9978
▁Mars	-9979
▁Past	-9980
▁RAAF	-9981
▁Sans	-9982
▁XIII	-9983
▁bees	-9984
▁debt	-9985
▁dict	-9986
▁enzy	-9987
▁frog	-9988
▁phen	-9989
▁quad	-9990
▁rats	-9991
▁soph	-9992
▁ties	-9993
▁trio	-9994
▁wish	-9995
active	-9996
bishop	-9997
encing	-9998
estone	-9999
ieties	-10000
ricted	-10001
veland	-10002
▁Arabs	-10003
▁Blake	-10004
▁Casey	-10005
▁Crist	-10006
▁Heart	-10007
▁Honor	-10008
▁Katie	-10009
▁Mandy	-10010
▁Navar	-10011
▁Tokyo	-10012
▁bench	-10013
▁buoys	-10014
▁cones	-10015
▁crash	-10016
▁false	-10017
▁medal	-10018
▁prosp	-10019
▁ridge	-10020
▁sharp	-10021
▁sheet	-10022
▁sunfl	-10023
▁tours	-10024
▁venue	-10025
▁wages	-10026
mingham	-10027
olition	-10028
tenance	-10029
terbury	-10030
▁Austro	-10031
▁Bedell	-10032
▁Madero	-10033
▁advice	-10034
▁blacks	-10035
▁coupon	-10036
▁crafts	-10037
▁devast	-10038
▁golden	-10039
▁guides	-10040
▁honour	-10041
▁mental	-10042
▁notice	-10043
▁parody	-10044
▁promin	-10045
▁quarts	-10046
▁transm	-10047
▁tulips	-10048
ositions	-10049
▁Gilbert	-10050
▁Nielsen	-10051
▁Without	-10052
▁YouTube	-10053
▁arrives	-10054
▁bridges	-10055
▁checked	-10056
▁closure	-10057
▁failing	-10058
▁mystery	-10059
▁speaker	-10060
▁teaches	-10061
▁tourist	-10062
ropolitan	-10063
▁Arkansas	-10064
▁Broadway	-10065
▁Missouri	-10066
▁Villaret	-10067
▁artistic	-10068
▁commemor	-10069
▁confront	-10070
▁creative	-10071
▁dinosaur	-10072
▁fraction	-10073
▁musician	-10074
▁relation	-10075
▁unlikely	-10076
▁Africaine	-10077
▁Argentine	-10078
▁Cleveland	-10079
▁Fernandez	-10080
▁Qedarites	-10081
▁behaviour	-10082
▁displaced	-10083
▁hospitals	-10084
▁resources	-10085
▁satellite	-10086
▁strategic	-10087
▁watershed	-10088
▁Birmingham	-10089
▁Canterbury	-10090
▁Enterprise	-10091
▁Hurricanes	-10092
▁Interstate	-10093
▁conclusion	-10094
▁discussion	-10095
▁Outstanding	-10096
▁disturbance	-10097
▁inhabitants	-10098
▁promotional	-10099
▁restaurants	-10100
▁substantial	-10101
▁temporarily	-10102
▁archaeologists	-10103
iy	-10104
oh	-10105
pm	-10106
aja	-10107
gud	-10108
iac	-10109
ibl	-10110
oos	-10111
osl	-10112
phy	-10113
ran	-10114
unc	-10115
zer	-10116
▁AA	-10117
▁Ep	-10118
▁Ot	-10119
▁SS	-10120
acko	-10121
alie	-10122
iang	-10123
ipel	-10124
list	-10125
loyd	-10126
oded	-10127
ribi	-10128
spec	-10129
tona	-10130
▁Are	-10131
▁Cir	-10132
▁Lem	-10133
▁Nik	-10134
▁Suz	-10135
▁USS	-10136
▁ash	-10137
▁emp	-10138
▁gap	-10139
▁lun	-10140
▁obl	-10141
ashes	-10142
icity	-10143
inder	-10144
licit	-10145
raska	-10146
romet	-10147
▁Come	-10148
▁Core	-10149
▁Giel	-10150
▁Hair	-10151
▁Hank	-10152
▁McEl	-10153
▁Nazi	-10154
▁Test	-10155
▁Tide	-10156
▁True	-10157
▁chip	-10158
▁fulf	-10159
▁hang	-10160
▁hunt	-10161
▁isot	-10162
▁leaf	-10163
▁lock	-10164
▁mamm	-10165
▁mand	-10166
▁pins	-10167
▁pood	-10168
▁pops	-10169
▁pron	-10170
▁stim	-10171
▁subd	-10172
▁torn	-10173
▁vast	-10174
▁zinc	-10175
ternal	-10176
▁Again	-10177
▁Gacko	-10178
▁Lloyd	-10179
▁Mason	-10180
▁Rajam	-10181
▁Sioux	-10182
▁Zagre	-10183
▁bowls	-10184
▁cater	-10185
▁draws	-10186
▁holes	-10187
▁meter	-10188
▁redes	-10189
▁relay	-10190
▁roots	-10191
▁shelf	-10192
▁stamp	-10193
▁surge	-10194
▁toler	-10195
▁vault	-10196
▁wider	-10197
▁wives	-10198
▁Author	-10199
▁Easter	-10200
▁Engine	-10201
▁Harris	-10202
▁Hawaii	-10203
▁Herald	-10204
▁Histor	-10205
▁Jerome	-10206
▁Sports	-10207
▁antiqu	-10208
▁beaten	-10209
▁causes	-10210
▁fitted	-10211
▁grades	-10212
▁indigo	-10213
▁inflic	-10214
▁latest	-10215
▁obtain	-10216
▁onions	-10217
▁potato	-10218
▁pretty	-10219
▁random	-10220
▁reveal	-10221
▁sacked	-10222
▁skirts	-10223
▁tonnes	-10224
▁turkey	-10225
▁values	-10226
▁wallet	-10227
▁whilst	-10228
American	-10229
▁Gielgud	-10230
▁beating	-10231
▁bombard	-10232
▁ceremon	-10233
▁cleared	-10234
▁enforce	-10235
▁hitting	-10236
▁multipl	-10237
▁peaking	-10238
▁printed	-10239
▁resumed	-10240
▁tissues	-10241
▁wickets	-10242
▁Cardinal	-10243
▁Nicholas	-10244
▁accurate	-10245
▁airports	-10246
▁boundary	-10247
▁decrease	-10248
▁departed	-10249
▁fourteen	-10250
▁graphics	-10251
▁platinum	-10252
▁pleasure	-10253
▁specimen	-10254
▁vertices	-10255
▁vicinity	-10256
▁weighing	-10257
▁assembled	-10258
▁attending	-10259
▁biography	-10260
▁functions	-10261
▁impressed	-10262
▁measuring	-10263
▁predators	-10264
▁scattered	-10265
▁searching	-10266
▁Eventually	-10267
▁boundaries	-10268
▁completing	-10269
▁strawberry	-10270
▁battleships	-10271
▁challenging	-10272
▁differences	-10273
▁fundamental	-10274
▁maintenance	-10275
▁nightingale	-10276
▁nominations	-10277
▁probability	-10278
▁announcement	-10279
▁marshmallows	-10280
▁entertainment	-10281
▁communications	-10282
▁infrastructure	-10283
▁reinforcements	-10284
▁representatives	-10285
CC	-10286
no	-10287
cho	-10288
gor	-10289
jan	-10290
oko	-10291
osy	-10292
pro	-10293
spe	-10294
zen	-10295
▁DD	-10296
▁Uy	-10297
▁oy	-10298
acht	-10299
axon	-10300
grid	-10301
hers	-10302
idae	-10303
imer	-10304
isha	-10305
join	-10306
ogan	-10307
ouli	-10308
part	-10309
umph	-10310
▁ATP	-10311
▁Bou	-10312
▁CPS	-10313
▁Els	-10314
▁Gen	-10315
▁Got	-10316
▁Joh	-10317
▁Nap	-10318
▁Oak	-10319
▁Rav	-10320
▁Sey	-10321
▁Ult	-10322
▁WNO	-10323
▁WWF	-10324
▁enh	-10325
▁hyg	-10326
▁obv	-10327
▁scr	-10328
▁vul	-10329
▁wet	-10330
▁wre	-10331
acles	-10332
avity	-10333
final	-10334
guard	-10335
icate	-10336
iliar	-10337
iplom	-10338
ocent	-10339
oples	-10340
ridge	-10341
ugosl	-10342
ético	-10343
▁Adri	-10344
▁Dick	-10345
▁Disc	-10346
▁Gene	-10347
▁Jews	-10348
▁Karl	-10349
▁Kyra	-10350
▁Near	-10351
▁Pole	-10352
▁Tara	-10353
▁bugs	-10354
▁bund	-10355
▁cher	-10356
▁cosm	-10357
▁danc	-10358
▁gate	-10359
▁icon	-10360
▁ther	-10361
atever	-10362
employ	-10363
ocking	-10364
rehens	-10365
ulates	-10366
wegian	-10367
▁Anzac	-10368
▁Doyle	-10369
▁Dress	-10370
▁Hobbs	-10371
▁Offic	-10372
▁Opera	-10373
▁Pagan	-10374
▁Perry	-10375
▁Rhode	-10376
▁Sammy	-10377
▁Seven	-10378
▁abuse	-10379
▁brain	-10380
▁canal	-10381
▁canon	-10382
▁foxes	-10383
▁inher	-10384
▁patch	-10385
▁ports	-10386
▁resid	-10387
▁skips	-10388
▁sweep	-10389
▁swims	-10390
▁troub	-10391
▁trout	-10392
vereign	-10393
▁Comedy	-10394
▁Connie	-10395
▁Hughes	-10396
▁Ingrid	-10397
▁Sandra	-10398
▁Treaty	-10399
▁Zagreb	-10400
▁agrees	-10401
▁apprec	-10402
▁ballad	-10403
▁conven	-10404
▁couldn	-10405
▁decomm	-10406
▁fisher	-10407
▁hidden	-10408
▁manage	-10409
▁mounts	-10410
▁patrol	-10411
▁pistol	-10412
▁planes	-10413
▁pocket	-10414
▁reader	-10415
▁refuge	-10416
▁ribbon	-10417
▁rivers	-10418
▁rushed	-10419
▁scorer	-10420
▁totals	-10421
▁whales	-10422
bracelet	-10423
▁Cricket	-10424
▁Kennedy	-10425
▁Looking	-10426
▁Navarro	-10427
▁Pirates	-10428
▁Raymond	-10429
▁beliefs	-10430
▁bushels	-10431
▁charted	-10432
▁comfort	-10433
▁disrupt	-10434
▁freedom	-10435
▁impress	-10436
▁kickoff	-10437
▁ongoing	-10438
▁reforms	-10439
▁removal	-10440
▁tactics	-10441
▁Atlético	-10442
▁Nebraska	-10443
▁attained	-10444
▁averages	-10445
▁brigades	-10446
▁colonies	-10447
▁consumes	-10448
▁internet	-10449
▁leftover	-10450
▁phenomen	-10451
▁register	-10452
▁reserved	-10453
▁starring	-10454
▁stronger	-10455
▁treasure	-10456
▁Neolithic	-10457
▁Rhodesian	-10458
▁Telegraph	-10459
▁advancing	-10460
▁adventure	-10461
▁allocated	-10462
▁comprised	-10463
▁elsewhere	-10464
▁furniture	-10465
▁ownership	-10466
▁permitted	-10467
▁seriously	-10468
▁surrender	-10469
▁temporary	-10470
▁variation	-10471
▁Collection	-10472
▁Democratic	-10473
▁assignment	-10474
▁celebrated	-10475
▁definition	-10476
▁jackrabbit	-10477
▁originated	-10478
▁reflection	-10479
▁relegation	-10480
▁succession	-10481
▁withdrawal	-10482
▁Development	-10483
▁commercials	-10484
▁participate	-10485
▁photographs	-10486
▁potentially	-10487
▁northeastern	-10488
▁publications	-10489
cr	-10490
dd	-10491
rh	-10492
sa	-10493
aba	-10494
aki	-10495
iga	-10496
▁($	-10497
▁=$	-10498
▁DE	-10499
▁Ze	-10500
arte	-10501
asco	-10502
awks	-10503
emen	-10504
eria	-10505
face	-10506
gram	-10507
hesh	-10508
isms	-10509
lesh	-10510
mith	-10511
prod	-10512
rena	-10513
sole	-10514
uese	-10515
walk	-10516
▁Arn	-10517
▁Bah	-10518
▁Bri	-10519
▁Lex	-10520
▁Ost	-10521
▁Vin	-10522
▁Zoe	-10523
▁isn	-10524
▁pse	-10525
▁zeb	-10526
ategy	-10527
athon	-10528
ettes	-10529
itely	-10530
olves	-10531
urred	-10532
▁Berh	-10533
▁Food	-10534
▁Gina	-10535
▁Kick	-10536
▁Lamb	-10537
▁Lane	-10538
▁Mall	-10539
▁Nine	-10540
▁Room	-10541
▁Sant	-10542
▁Stop	-10543
▁Tree	-10544
▁Xook	-10545
▁barr	-10546
▁brut	-10547
▁gram	-10548
▁pars	-10549
▁rout	-10550
▁salv	-10551
▁tale	-10552
▁tent	-10553
ellect	-10554
itated	-10555
leased	-10556
oustic	-10557
second	-10558
uating	-10559
▁Bella	-10560
▁Bhair	-10561
▁Charm	-10562
▁Crash	-10563
▁Elgin	-10564
▁McCar	-10565
▁Rebec	-10566
▁Until	-10567
▁Where	-10568
▁acted	-10569
▁alive	-10570
▁boots	-10571
▁diver	-10572
▁dream	-10573
▁knife	-10574
▁manip	-10575
▁mines	-10576
▁photo	-10577
▁rains	-10578
▁ranks	-10579
▁ruler	-10580
▁sings	-10581
▁spark	-10582
▁telev	-10583
▁twent	-10584
▁usage	-10585
▁veter	-10586
ologies	-10587
ulating	-10588
western	-10589
▁Auburn	-10590
▁Curtis	-10591
▁Hockey	-10592
▁Mahesh	-10593
▁Reines	-10594
▁Walker	-10595
▁Yugosl	-10596
▁backed	-10597
▁client	-10598
▁croiss	-10599
▁dining	-10600
▁dubbed	-10601
▁finale	-10602
▁handle	-10603
▁intake	-10604
▁jumped	-10605
▁mobile	-10606
▁packed	-10607
▁prices	-10608
▁shrimp	-10609
▁shrine	-10610
▁spider	-10611
▁unless	-10612
entional	-10613
▁Bernard	-10614
▁Cameron	-10615
▁Critics	-10616
▁Destroy	-10617
▁Indones	-10618
▁Montana	-10619
▁Popular	-10620
▁Weather	-10621
▁Wikiped	-10622
▁clients	-10623
▁divines	-10624
▁donates	-10625
▁helping	-10626
▁illegal	-10627
▁lacking	-10628
▁marking	-10629
▁onwards	-10630
▁physics	-10631
▁placing	-10632
▁profile	-10633
▁rescued	-10634
▁restore	-10635
▁sailors	-10636
▁screens	-10637
▁sharpen	-10638
▁sixteen	-10639
▁violent	-10640
ationally	-10641
atropical	-10642
▁Brittany	-10643
▁Internet	-10644
▁Princess	-10645
▁absorbed	-10646
▁backyard	-10647
▁electron	-10648
▁embarked	-10649
▁eventual	-10650
▁invested	-10651
▁operates	-10652
▁patterns	-10653
▁quantity	-10654
▁reducing	-10655
▁requests	-10656
▁reviewed	-10657
▁Catherine	-10658
▁Norwegian	-10659
▁Rajamouli	-10660
▁abilities	-10661
▁cancelled	-10662
▁certainly	-10663
▁childhood	-10664
▁dangerous	-10665
▁defending	-10666
▁districts	-10667
▁exclusive	-10668
▁fireworks	-10669
▁gathering	-10670
▁intellect	-10671
▁ministers	-10672
▁referring	-10673
▁replacing	-10674
▁Portuguese	-10675
▁complaints	-10676
▁properties	-10677
▁Archaeology	-10678
▁Corporation	-10679
▁Palestinian	-10680
▁butterflies	-10681
▁interpreted	-10682
▁historically	-10683
▁temperatures	-10684
Pa	-10685
bu	-10686
mn	-10687
eor	-10688
pes	-10689
pet	-10690
uly	-10691
vis	-10692
▁AR	-10693
▁Dw	-10694
▁Nu	-10695
▁PA	-10696
▁Yo	-10697
anka	-10698
aulk	-10699
awny	-10700
azon	-10701
elin	-10702
gans	-10703
iche	-10704
icle	-10705
imon	-10706
inai	-10707
lore	-10708
okie	-10709
olve	-10710
pper	-10711
rose	-10712
tuce	-10713
ules	-10714
▁Dal	-10715
▁Jar	-10716
▁MVP	-10717
▁Tat	-10718
▁asc	-10719
▁pec	-10720
▁tap	-10721
▁vel	-10722
aiman	-10723
andel	-10724
aurus	-10725
ayana	-10726
entle	-10727
illes	-10728
owski	-10729
parts	-10730
ripts	-10731
▁Bosn	-10732
▁Farm	-10733
▁Feel	-10734
▁Lulu	-10735
▁Panz	-10736
▁Shop	-10737
▁Turk	-10738
▁Uygh	-10739
▁Wing	-10740
▁bord	-10741
▁boss	-10742
▁cruc	-10743
▁dess	-10744
▁fing	-10745
▁gran	-10746
▁horn	-10747
▁hull	-10748
▁hung	-10749
▁lady	-10750
▁mild	-10751
▁naut	-10752
▁tins	-10753
▁tire	-10754
▁wage	-10755
agogue	-10756
igible	-10757
inness	-10758
▁Dante	-10759
▁Faulk	-10760
▁Hakim	-10761
▁Kenny	-10762
▁Phoen	-10763
▁Princ	-10764
▁Sinai	-10765
▁Tyler	-10766
▁advoc	-10767
▁blend	-10768
▁demon	-10769
▁flesh	-10770
▁helps	-10771
▁javel	-10772
▁liber	-10773
▁links	-10774
▁metre	-10775
▁reper	-10776
▁scoop	-10777
▁solve	-10778
▁taste	-10779
anville	-10780
emetery	-10781
underst	-10782
▁Bergen	-10783
▁Dakota	-10784
▁Sultan	-10785
▁aboard	-10786
▁abroad	-10787
▁barrel	-10788
▁bigger	-10789
▁carton	-10790
▁curved	-10791
▁device	-10792
▁diplom	-10793
▁empire	-10794
▁enthus	-10795
▁hoping	-10796
▁housed	-10797
▁ladies	-10798
▁recycl	-10799
▁spiral	-10800
▁stabil	-10801
▁storms	-10802
▁supern	-10803
▁timber	-10804
anthodon	-10805
byterian	-10806
▁Bristol	-10807
▁Brother	-10808
▁Digital	-10809
▁McElroy	-10810
▁Perform	-10811
▁arguing	-10812
▁compens	-10813
▁comprom	-10814
▁consent	-10815
▁dancing	-10816
▁escaped	-10817
▁genetic	-10818
▁harbour	-10819
▁jackets	-10820
▁lettuce	-10821
▁minimal	-10822
▁persons	-10823
▁plastic	-10824
▁predict	-10825
▁rehabil	-10826
▁surpass	-10827
▁terrain	-10828
▁Faulkner	-10829
▁Franklin	-10830
▁Highland	-10831
▁Superman	-10832
▁audition	-10833
▁bicycles	-10834
▁coaching	-10835
▁explicit	-10836
▁facility	-10837
▁friendly	-10838
▁nautical	-10839
▁railroad	-10840
▁surprise	-10841
▁triangle	-10842
▁Education	-10843
▁Hungarian	-10844
▁Louisiana	-10845
▁Shimomura	-10846
▁conflicts	-10847
▁discovers	-10848
▁distances	-10849
▁harvested	-10850
▁inclusion	-10851
▁perfectly	-10852
▁acceptable	-10853
▁accomplish	-10854
▁attendance	-10855
▁expression	-10856
▁laboratory	-10857
▁mainstream	-10858
▁semifinals	-10859
▁storylines	-10860
▁Furthermore	-10861
▁Paranthodon	-10862
▁Construction	-10863
▁compositions	-10864
▁consistently	-10865
▁interactions	-10866
▁significance	-10867
▁architectural	-10868
▁extratropical	-10869
Ms	-10870
lu	-10871
ait	-10872
lie	-10873
mat	-10874
mem	-10875
nik	-10876
nyi	-10877
uda	-10878
uri	-10879
▁CN	-10880
▁DJ	-10881
▁Ga	-10882
▁Hu	-10883
▁RI	-10884
▁da	-10885
door	-10886
ilyn	-10887
ivan	-10888
onde	-10889
uffs	-10890
wall	-10891
ygen	-10892
▁Aut	-10893
▁Cow	-10894
▁FIT	-10895
▁Ins	-10896
▁Kub	-10897
▁Mas	-10898
▁Pad	-10899
▁Rey	-10900
▁SNL	-10901
▁iPh	-10902
▁ine	-10903
▁mal	-10904
▁ris	-10905
abbar	-10906
agers	-10907
anche	-10908
arten	-10909
astra	-10910
azing	-10911
iland	-10912
iscus	-10913
nings	-10914
ricia	-10915
ricus	-10916
twald	-10917
woman	-10918
yself	-10919
▁Born	-10920
▁Budd	-10921
▁Dead	-10922
▁Liam	-10923
▁Tell	-10924
▁Thir	-10925
▁Wald	-10926
▁bare	-10927
▁belt	-10928
▁boun	-10929
▁duet	-10930
▁fame	-10931
▁hike	-10932
▁loaf	-10933
▁myel	-10934
▁nose	-10935
▁pled	-10936
▁rede	-10937
▁yarn	-10938
ampton	-10939
aptist	-10940
eteria	-10941
forced	-10942
fourth	-10943
oulder	-10944
▁Abbey	-10945
▁Blues	-10946
▁Ellis	-10947
▁Grays	-10948
▁Gwend	-10949
▁Leila	-10950
▁Level	-10951
▁Manny	-10952
▁Micha	-10953
▁Prize	-10954
▁Stacy	-10955
▁appet	-10956
▁bases	-10957
▁clown	-10958
▁conce	-10959
▁decay	-10960
▁delay	-10961
▁eagle	-10962
▁exter	-10963
▁fault	-10964
▁fluid	-10965
▁ideal	-10966
▁irreg	-10967
▁laugh	-10968
▁morph	-10969
▁orbit	-10970
▁pries	-10971
▁reven	-10972
▁vital	-10973
iblical	-10974
ipelago	-10975
▁Andrea	-10976
▁Rafael	-10977
▁Stewie	-10978
▁Ulster	-10979
▁assess	-10980
▁breath	-10981
▁campus	-10982
▁dragon	-10983
▁endors	-10984
▁factor	-10985
▁giraff	-10986
▁lacked	-10987
▁learns	-10988
▁metall	-10989
▁nephew	-10990
▁pilots	-10991
▁refrig	-10992
▁salmon	-10993
▁seated	-10994
▁snacks	-10995
▁solely	-10996
▁talent	-10997
▁victim	-10998
▁warned	-10999
▁Banksia	-11000
▁Gregory	-11001
▁Leonard	-11002
▁Library	-11003
▁Trinity	-11004
▁armored	-11005
▁barrels	-11006
▁batsmen	-11007
▁closing	-11008
▁console	-11009
▁continu	-11010
▁desired	-11011
▁extinct	-11012
▁halfway	-11013
▁hosting	-11014
▁lawsuit	-11015
▁nations	-11016
▁possess	-11017
▁powered	-11018
▁profits	-11019
▁retreat	-11020
▁romance	-11021
▁rounded	-11022
▁sending	-11023
▁temples	-11024
▁tunnels	-11025
▁winners	-11026
▁Aviation	-11027
▁Madeline	-11028
▁Montfort	-11029
▁arriving	-11030
▁assembly	-11031
▁branches	-11032
▁category	-11033
▁cherries	-11034
▁displays	-11035
▁eighteen	-11036
▁formerly	-11037
▁hygromet	-11038
▁petition	-11039
▁playoffs	-11040
▁praising	-11041
▁sporting	-11042
▁stopping	-11043
▁valuable	-11044
▁Berhtwald	-11045
▁animation	-11046
▁cafeteria	-11047
▁capturing	-11048
▁cucumbers	-11049
▁disappoin	-11050
▁graduated	-11051
▁indicates	-11052
▁inventory	-11053
▁practiced	-11054
▁recurring	-11055
▁reduction	-11056
▁secretary	-11057
▁Operations	-11058
▁aggressive	-11059
▁altarpiece	-11060
▁comparison	-11061
▁industries	-11062
▁positively	-11063
▁resolution	-11064
▁sculptures	-11065
▁statistics	-11066
▁structural	-11067
▁translated	-11068
▁appropriate	-11069
▁babysitting	-11070
▁celebration	-11071
▁competitive	-11072
▁conjunction	-11073
▁highlighted	-11074
▁operational	-11075
▁arrangements	-11076
▁conversation	-11077
▁presentation	-11078
▁requirements	-11079
▁Charmbracelet	-11080
▁investigation	-11081
▁decommissioned	-11082
zi	-11083
aze	-11084
bee	-11085
cop	-11086
cup	-11087
hop	-11088
jib	-11089
nen	-11090
ogy	-11091
rov	-11092
rox	-11093
▁AP	-11094
▁EP	-11095
▁Su	-11096
▁yd	-11097
ache	-11098
agne	-11099
avan	-11100
budo	-11101
eper	-11102
eras	-11103
fess	-11104
fits	-11105
lain	-11106
norm	-11107
odes	-11108
olia	-11109
pson	-11110
sson	-11111
▁Bea	-11112
▁Bol	-11113
▁Cub	-11114
▁Gun	-11115
▁Haz	-11116
▁Hop	-11117
▁Mul	-11118
▁Ore	-11119
▁Pub	-11120
▁Rom	-11121
▁Saf	-11122
▁Sox	-11123
▁bun	-11124
▁duo	-11125
▁fil	-11126
▁hPa	-11127
▁sin	-11128
eared	-11129
ilers	-11130
ivals	-11131
mical	-11132
orted	-11133
ospel	-11134
otten	-11135
rying	-11136
umble	-11137
▁Berg	-11138
▁Cook	-11139
▁Crim	-11140
▁Dana	-11141
▁Ella	-11142
▁Feld	-11143
▁Find	-11144
▁Gamb	-11145
▁Hong	-11146
▁Hugh	-11147
▁Jude	-11148
▁Keys	-11149
▁Less	-11150
▁List	-11151
▁Outs	-11152
▁Pink	-11153
▁Poet	-11154
▁Ragh	-11155
▁Rand	-11156
▁Sign	-11157
▁Stat	-11158
▁Surv	-11159
▁aren	-11160
▁aunt	-11161
▁happ	-11162
▁hind	-11163
▁lapt	-11164
▁owed	-11165
▁reun	-11166
ficial	-11167
resent	-11168
riarch	-11169
▁Cindy	-11170
▁Helen	-11171
▁Loose	-11172
▁Lower	-11173
▁Parks	-11174
▁Prote	-11175
▁Shell	-11176
▁Upper	-11177
▁Wells	-11178
▁adequ	-11179
▁blown	-11180
▁cheap	-11181
▁dread	-11182
▁geese	-11183
▁guide	-11184
▁gusts	-11185
▁inhab	-11186
▁jokes	-11187
▁lawns	-11188
▁mango	-11189
▁minus	-11190
▁moist	-11191
▁monit	-11192
▁quiet	-11193
▁relax	-11194
▁sends	-11195
▁skull	-11196
▁spore	-11197
▁terri	-11198
▁unexp	-11199
icester	-11200
ometric	-11201
veloped	-11202
▁Centre	-11203
▁Fastra	-11204
▁Gibson	-11205
▁Ground	-11206
▁Imbudo	-11207
▁Joshua	-11208
▁Lauren	-11209
▁Season	-11210
▁Slayer	-11211
▁Susque	-11212
▁Travis	-11213
▁Trophy	-11214
▁behalf	-11215
▁breast	-11216
▁builds	-11217
▁exists	-11218
▁extant	-11219
▁extend	-11220
▁hamlet	-11221
▁heroes	-11222
▁hourly	-11223
▁kicked	-11224
▁mature	-11225
▁oxygen	-11226
▁racing	-11227
▁rebell	-11228
▁recept	-11229
▁rejoin	-11230
▁repeat	-11231
▁splits	-11232
▁stolen	-11233
▁verses	-11234
▁Defense	-11235
▁Freakum	-11236
▁Natural	-11237
▁Supreme	-11238
▁anticip	-11239
▁caliber	-11240
▁chances	-11241
▁damages	-11242
▁density	-11243
▁discont	-11244
▁dynasty	-11245
▁evident	-11246
▁exhibit	-11247
▁horizon	-11248
▁illness	-11249
▁javelin	-11250
▁leagues	-11251
▁locally	-11252
▁nearest	-11253
▁origins	-11254
▁oysters	-11255
▁parrots	-11256
▁peoples	-11257
▁pounder	-11258
▁removes	-11259
▁reunion	-11260
▁reverse	-11261
▁revival	-11262
▁revived	-11263
▁roadway	-11264
▁soldier	-11265
▁surrend	-11266
▁therapy	-11267
▁touring	-11268
ipitation	-11269
▁Austrian	-11270
▁Heritage	-11271
▁Pakistan	-11272
▁Robinson	-11273
▁Starting	-11274
▁Wolfpack	-11275
▁centered	-11276
▁consolid	-11277
▁guidance	-11278
▁homeless	-11279
▁lifetime	-11280
▁marathon	-11281
▁refriger	-11282
▁screened	-11283
▁strategy	-11284
▁Carpenter	-11285
▁Hampshire	-11286
▁Leicester	-11287
▁Mountains	-11288
▁Wikipedia	-11289
▁boyfriend	-11290
▁civilians	-11291
▁exercises	-11292
▁molecular	-11293
▁occurring	-11294
▁preceding	-11295
▁prisoners	-11296
▁universal	-11297
▁warehouse	-11298
▁Witchcraft	-11299
▁continuous	-11300
▁conversion	-11301
▁employment	-11302
▁membership	-11303
▁purchasing	-11304
▁vegetation	-11305
▁improvement	-11306
▁maintaining	-11307
▁translation	-11308
▁watermelons	-11309
▁complimented	-11310
▁improvements	-11311
▁inscriptions	-11312
▁southeastern	-11313
▁universities	-11314
▁hygrometricus	-11315
▁neighborhoods	-11316
▁Archaeological	-11317
▁Transportation	-11318
▁administrative	-11319
MA	-11320
TA	-11321
adh	-11322
ahl	-11323
aux	-11324
bal	-11325
cen	-11326
gio	-11327
iab	-11328
lon	-11329
obi	-11330
rus	-11331
sis	-11332
sts	-11333
tic	-11334
ugg	-11335
▁AL	-11336
▁BM	-11337
▁DS	-11338
▁GB	-11339
▁MB	-11340
▁Zr	-11341
▁hi	-11342
▁kW	-11343
ados	-11344
cour	-11345
dale	-11346
hand	-11347
ieve	-11348
ilis	-11349
orph	-11350
osex	-11351
otyp	-11352
ovac	-11353
quis	-11354
rane	-11355
selm	-11356
tene	-11357
unta	-11358
▁Blu	-11359
▁CBS	-11360
▁Ext	-11361
▁Hip	-11362
▁Hod	-11363
▁Kau	-11364
▁Kon	-11365
▁NOK	-11366
▁Nag	-11367
▁Pil	-11368
▁Rut	-11369
▁Sac	-11370
▁Wat	-11371
▁bin	-11372
▁cel	-11373
▁gig	-11374
▁peb	-11375
▁ped	-11376
▁vet	-11377
agoda	-11378
antha	-11379
apore	-11380
eding	-11381
ensus	-11382
erver	-11383
illas	-11384
iolet	-11385
ocese	-11386
uedoc	-11387
yards	-11388
▁Ages	-11389
▁Bird	-11390
▁Deal	-11391
▁Fall	-11392
▁Ferd	-11393
▁Fran	-11394
▁Grey	-11395
▁Heid	-11396
▁Hend	-11397
▁Plan	-11398
▁Ruth	-11399
▁Snow	-11400
▁Tong	-11401
▁Tuck	-11402
▁beam	-11403
▁dent	-11404
▁dice	-11405
▁exch	-11406
▁garn	-11407
▁hamp	-11408
▁jail	-11409
▁knee	-11410
▁loud	-11411
▁pige	-11412
▁sled	-11413
▁vine	-11414
achute	-11415
astian	-11416
osures	-11417
unning	-11418
▁Andre	-11419
▁Begin	-11420
▁Clark	-11421
▁Cloud	-11422
▁Donna	-11423
▁Flair	-11424
▁Glass	-11425
▁Globe	-11426
▁Katia	-11427
▁Kayla	-11428
▁Movie	-11429
▁Polit	-11430
▁Right	-11431
▁Shane	-11432
▁Wrest	-11433
▁align	-11434
▁baker	-11435
▁bunch	-11436
▁canes	-11437
▁dealt	-11438
▁disag	-11439
▁enlar	-11440
▁filed	-11441
▁gummy	-11442
▁lover	-11443
▁motif	-11444
▁pears	-11445
▁retre	-11446
▁retro	-11447
▁tawny	-11448
related	-11449
ullivan	-11450
▁Anselm	-11451
▁Bruins	-11452
▁Garden	-11453
▁Graham	-11454
▁Health	-11455
▁Import	-11456
▁Leslie	-11457
▁Manuel	-11458
▁Savage	-11459
▁bright	-11460
▁edited	-11461
▁horror	-11462
▁indeed	-11463
▁marble	-11464
▁merely	-11465
▁myself	-11466
▁opined	-11467
▁phrase	-11468
▁sample	-11469
▁shield	-11470
▁slopes	-11471
▁spokes	-11472
▁staged	-11473
▁thread	-11474
▁varied	-11475
▁volcan	-11476
aturally	-11477
▁Crystal	-11478
▁Defence	-11479
▁Emperor	-11480
▁Marilyn	-11481
▁Maryang	-11482
▁Montene	-11483
▁Newport	-11484
▁Program	-11485
▁Rebecca	-11486
▁Susqueh	-11487
▁avoided	-11488
▁bowling	-11489
▁climate	-11490
▁divorce	-11491
▁expense	-11492
▁experts	-11493
▁facilit	-11494
▁fantasy	-11495
▁hearing	-11496
▁justice	-11497
▁matters	-11498
▁reactor	-11499
▁shelves	-11500
▁staying	-11501
▁tallest	-11502
▁trapped	-11503
▁unnamed	-11504
▁Algernon	-11505
▁Antimony	-11506
▁Brethren	-11507
▁McNichol	-11508
▁Montreal	-11509
▁Official	-11510
▁Samantha	-11511
▁Thompson	-11512
▁airplane	-11513
▁asserted	-11514
▁commands	-11515
▁demanded	-11516
▁deployed	-11517
▁detected	-11518
▁devotion	-11519
▁flagship	-11520
▁identify	-11521
▁opinions	-11522
▁stitches	-11523
▁suddenly	-11524
▁vampires	-11525
▁Glanville	-11526
▁Languedoc	-11527
▁Singapore	-11528
▁believing	-11529
▁birdhouse	-11530
▁brilliant	-11531
▁component	-11532
▁directing	-11533
▁disappear	-11534
▁encounter	-11535
▁geography	-11536
▁inaugural	-11537
▁irregular	-11538
▁neighbour	-11539
▁perceived	-11540
▁portraits	-11541
▁predicted	-11542
▁responses	-11543
▁seedlings	-11544
▁similarly	-11545
▁strongest	-11546
▁torpedoes	-11547
▁virtually	-11548
▁withdrawn	-11549
▁Federation	-11550
▁Republican	-11551
▁approaches	-11552
▁authorized	-11553
▁complement	-11554
▁convention	-11555
▁decoration	-11556
▁emphasized	-11557
▁helicopter	-11558
▁households	-11559
▁interviews	-11560
▁philosophy	-11561
▁playground	-11562
▁restricted	-11563
▁separately	-11564
▁speculated	-11565
▁accessories	-11566
▁territorial	-11567
▁transported	-11568
▁Contemporary	-11569
▁applications	-11570
▁concentrated	-11571
▁championships	-11572
▁parliamentary	-11573
▁battlecruisers	-11574
SU	-11575
Con	-11576
cat	-11577
cos	-11578
hin	-11579
iob	-11580
say	-11581
ubb	-11582
xic	-11583
▁Wu	-11584
▁af	-11585
▁gn	-11586
▁ta	-11587
adir	-11588
anie	-11589
anus	-11590
arer	-11591
aten	-11592
avin	-11593
core	-11594
cuts	-11595
dish	-11596
erto	-11597
este	-11598
icus	-11599
itri	-11600
itsu	-11601
leys	-11602
name	-11603
omon	-11604
oned	-11605
riet	-11606
rino	-11607
tzow	-11608
vant	-11609
zing	-11610
▁Aud	-11611
▁ECU	-11612
▁Ped	-11613
▁Ple	-11614
▁Set	-11615
▁abd	-11616
▁guy	-11617
▁hay	-11618
▁jur	-11619
▁nob	-11620
▁oct	-11621
▁owe	-11622
▁pad	-11623
▁rav	-11624
▁sne	-11625
▁unw	-11626
▁yog	-11627
angel	-11628
backs	-11629
check	-11630
cules	-11631
elson	-11632
idays	-11633
oping	-11634
rigue	-11635
▁Assy	-11636
▁Bour	-11637
▁Call	-11638
▁Clay	-11639
▁Kath	-11640
▁Know	-11641
▁Moro	-11642
▁Ojib	-11643
▁Pant	-11644
▁Plat	-11645
▁Race	-11646
▁Sche	-11647
▁Ship	-11648
▁Suez	-11649
▁Thai	-11650
▁Zack	-11651
▁buff	-11652
▁diff	-11653
▁eval	-11654
▁hotd	-11655
▁kiss	-11656
▁mane	-11657
▁perf	-11658
▁pion	-11659
▁pros	-11660
▁rais	-11661
▁ramp	-11662
▁rasp	-11663
▁reag	-11664
▁tray	-11665
▁unre	-11666
igious	-11667
itaire	-11668
orenzo	-11669
▁Chase	-11670
▁Draft	-11671
▁Somet	-11672
▁Staff	-11673
▁Store	-11674
▁Strap	-11675
▁Sword	-11676
▁Trent	-11677
▁Vishn	-11678
▁Yorks	-11679
▁aimed	-11680
▁crabs	-11681
▁crate	-11682
▁deals	-11683
▁feeds	-11684
▁figur	-11685
▁ghost	-11686
▁groom	-11687
▁lying	-11688
▁noise	-11689
▁saint	-11690
▁spawn	-11691
▁talks	-11692
▁trump	-11693
▁waves	-11694
enguins	-11695
mediate	-11696
species	-11697
▁Aldean	-11698
▁Charan	-11699
▁Combat	-11700
▁Darwin	-11701
▁Durand	-11702
▁Ingram	-11703
▁Jackie	-11704
▁Rivers	-11705
▁Stakes	-11706
▁Voyage	-11707
▁abnorm	-11708
▁affair	-11709
▁canons	-11710
▁clergy	-11711
▁clouds	-11712
▁corpor	-11713
▁excell	-11714
▁gnomes	-11715
▁hemmem	-11716
▁licens	-11717
▁limits	-11718
▁mixing	-11719
▁mowing	-11720
▁myster	-11721
▁parade	-11722
▁physic	-11723
▁prosec	-11724
▁quoted	-11725
▁rivals	-11726
▁solved	-11727
▁summar	-11728
▁terror	-11729
▁vacuum	-11730
▁versus	-11731
arnation	-11732
▁Angelou	-11733
▁Clement	-11734
▁Crimson	-11735
▁Denmark	-11736
▁Gabriel	-11737
▁Jasmine	-11738
▁Lorenzo	-11739
▁Members	-11740
▁Philipp	-11741
▁Wallace	-11742
▁cashier	-11743
▁circles	-11744
▁circuit	-11745
▁creates	-11746
▁evolved	-11747
▁explain	-11748
▁farming	-11749
▁goddess	-11750
▁heading	-11751
▁heavier	-11752
▁imposed	-11753
▁magical	-11754
▁options	-11755
▁overlap	-11756
▁pebbles	-11757
▁planets	-11758
▁priests	-11759
▁pursuit	-11760
▁quadrup	-11761
▁renewed	-11762
▁samples	-11763
▁targets	-11764
▁volumes	-11765
▁wealthy	-11766
umberland	-11767
▁McCarthy	-11768
▁Morrison	-11769
▁acoustic	-11770
▁animated	-11771
▁argument	-11772
▁aviation	-11773
▁canceled	-11774
▁engineer	-11775
▁enlisted	-11776
▁ensemble	-11777
▁estimate	-11778
▁memories	-11779
▁midfield	-11780
▁pastries	-11781
▁planting	-11782
▁policies	-11783
▁preserve	-11784
▁remember	-11785
▁reopened	-11786
▁settings	-11787
▁software	-11788
▁vocalist	-11789
▁Chanology	-11790
▁Commandos	-11791
▁Communist	-11792
▁Companies	-11793
▁Strapping	-11794
▁Yorkshire	-11795
▁addresses	-11796
▁afterward	-11797
▁belonging	-11798
▁commenced	-11799
▁contracts	-11800
▁extending	-11801
▁perimeter	-11802
▁proceeded	-11803
▁releasing	-11804
▁synagogue	-11805
▁twentieth	-11806
▁weakening	-11807
▁Confession	-11808
▁ambassador	-11809
▁commenting	-11810
▁consistent	-11811
▁propaganda	-11812
▁statements	-11813
▁submarines	-11814
▁subspecies	-11815
▁undertaken	-11816
▁basketballs	-11817
▁politicians	-11818
▁surrendered	-11819
▁Christianity	-11820
▁deliberately	-11821
▁restrictions	-11822
▁characteristic	-11823
▁classification	-11824
),	-11825
LC	-11826
ho	-11827
mo	-11828
zu	-11829
ece	-11830
edd	-11831
kov	-11832
ova	-11833
rag	-11834
top	-11835
uen	-11836
utt	-11837
▁Ax	-11838
▁Pu	-11839
▁eu	-11840
▁mL	-11841
▁tu	-11842
avor	-11843
away	-11844
comm	-11845
ctic	-11846
elta	-11847
emma	-11848
full	-11849
hent	-11850
iens	-11851
inea	-11852
ithm	-11853
odox	-11854
ogns	-11855
onda	-11856
onso	-11857
ovil	-11858
rait	-11859
ruit	-11860
saku	-11861
uler	-11862
uras	-11863
▁Any	-11864
▁Avt	-11865
▁Ban	-11866
▁Bod	-11867
▁Bud	-11868
▁Fre	-11869
▁Imp	-11870
▁Isa	-11871
▁Kal	-11872
▁Kum	-11873
▁Lam	-11874
▁Lin	-11875
▁Mun	-11876
▁Pap	-11877
▁Por	-11878
▁Pul	-11879
▁Unf	-11880
▁gau	-11881
▁jet	-11882
▁kgs	-11883
▁lam	-11884
▁por	-11885
▁tet	-11886
amedu	-11887
apple	-11888
arant	-11889
cycle	-11890
ifest	-11891
oline	-11892
oting	-11893
urger	-11894
▁Alma	-11895
▁Arik	-11896
▁Belt	-11897
▁Conc	-11898
▁Drew	-11899
▁Forb	-11900
▁Goth	-11901
▁Iowa	-11902
▁Mets	-11903
▁Nort	-11904
▁Priv	-11905
▁Talk	-11906
▁Trip	-11907
▁Vist	-11908
▁amid	-11909
▁barb	-11910
▁dust	-11911
▁fram	-11912
▁harm	-11913
▁knit	-11914
▁navy	-11915
▁owes	-11916
▁pamp	-11917
▁pear	-11918
▁prol	-11919
▁rape	-11920
▁rays	-11921
▁ripe	-11922
▁situ	-11923
▁thre	-11924
▁todd	-11925
▁unst	-11926
bourne	-11927
eltown	-11928
erning	-11929
estock	-11930
fields	-11931
istent	-11932
itable	-11933
usader	-11934
▁Based	-11935
▁Boris	-11936
▁Brack	-11937
▁Cobra	-11938
▁Colin	-11939
▁Death	-11940
▁Delta	-11941
▁Local	-11942
▁Peron	-11943
▁Pitts	-11944
▁Price	-11945
▁Reese	-11946
▁Scout	-11947
▁Susie	-11948
▁Tammy	-11949
▁Track	-11950
▁Trail	-11951
▁Wyatt	-11952
▁algor	-11953
▁antac	-11954
▁booth	-11955
▁creek	-11956
▁curve	-11957
▁disgu	-11958
▁elite	-11959
▁hatch	-11960
▁horns	-11961
▁humor	-11962
▁lamps	-11963
▁legit	-11964
▁oribi	-11965
▁pasta	-11966
▁pseud	-11967
▁skill	-11968
▁stalk	-11969
▁stall	-11970
▁taxon	-11971
▁tears	-11972
▁tempo	-11973
▁troop	-11974
▁uncom	-11975
▁watts	-11976
▁witch	-11977
inction	-11978
ocation	-11979
umbered	-11980
▁Agency	-11981
▁Amazon	-11982
▁Attack	-11983
▁Calvin	-11984
▁Dwight	-11985
▁Eugene	-11986
▁Europa	-11987
▁Exeter	-11988
▁Gabbar	-11989
▁Gladys	-11990
▁Humpty	-11991
▁Joyful	-11992
▁Junior	-11993
▁Kaiman	-11994
▁Living	-11995
▁Number	-11996
▁Pierre	-11997
▁Rapids	-11998
▁Rebbie	-11999
▁Ronald	-12000
▁Stones	-12001
▁Yeovil	-12002
▁aerial	-12003
▁ascend	-12004
▁assume	-12005
▁autumn	-12006
▁beauty	-12007
▁ceased	-12008
▁dimens	-12009
▁gender	-12010
▁hairst	-12011
▁milksh	-12012
▁prefer	-12013
▁priced	-12014
▁shoots	-12015
▁sitcom	-12016
▁slaves	-12017
▁symmet	-12018
▁tested	-12019
▁trough	-12020
▁unrest	-12021
▁unused	-12022
▁wicket	-12023
▁Avtovac	-12024
▁Baptist	-12025
▁Boulder	-12026
▁Cadmium	-12027
▁Diamond	-12028
▁Foreign	-12029
▁Morning	-12030
▁Skinner	-12031
▁Working	-12032
▁acceler	-12033
▁antagon	-12034
▁centres	-12035
▁dancers	-12036
▁dealing	-12037
▁descent	-12038
▁devoted	-12039
▁drafted	-12040
▁emotion	-12041
▁extends	-12042
▁forming	-12043
▁funeral	-12044
▁handful	-12045
▁hostile	-12046
▁leather	-12047
▁monkeys	-12048
▁organic	-12049
▁packing	-12050
▁proceed	-12051
▁revised	-12052
▁shallow	-12053
▁spiders	-12054
▁surfers	-12055
▁surveys	-12056
▁tractor	-12057
▁updated	-12058
▁vanilla	-12059
▁wanting	-12060
ibilities	-12061
▁Assuming	-12062
▁Bhairava	-12063
▁Business	-12064
▁Colonies	-12065
▁Medieval	-12066
▁Original	-12067
▁Province	-12068
▁Railroad	-12069
▁Savannah	-12070
▁Sullivan	-12071
▁attitude	-12072
▁bedrooms	-12073
▁dropping	-12074
▁elephant	-12075
▁fragment	-12076
▁governed	-12077
▁merchant	-12078
▁millilit	-12079
▁narrator	-12080
▁networks	-12081
▁offshore	-12082
▁printing	-12083
▁rendered	-12084
▁resemble	-12085
▁spelling	-12086
▁supplier	-12087
▁transits	-12088
▁websites	-12089
▁whatever	-12090
▁Arikamedu	-12091
▁Beginning	-12092
▁Bracknell	-12093
▁Brazilian	-12094
▁Christina	-12095
▁Community	-12096
▁Indolence	-12097
▁Yesterday	-12098
▁aggregate	-12099
▁chemistry	-12100
▁contacted	-12101
▁depiction	-12102
▁deposited	-12103
▁eliminate	-12104
▁estimates	-12105
▁exhausted	-12106
▁landscape	-12107
▁limestone	-12108
▁listening	-12109
▁livestock	-12110
▁machinery	-12111
▁offerings	-12112
▁platforms	-12113
▁pregnancy	-12114
▁sexuality	-12115
▁teammates	-12116
▁Christians	-12117
▁Queensland	-12118
▁components	-12119
▁contracted	-12120
▁exhibition	-12121
▁immigrants	-12122
▁intersects	-12123
▁invitation	-12124
▁processing	-12125
▁protesters	-12126
▁provincial	-12127
▁reportedly	-12128
▁strikeouts	-12129
▁travelling	-12130
▁Campbeltown	-12131
▁archipelago	-12132
▁battlefield	-12133
▁governments	-12134
▁observation	-12135
▁partnership	-12136
▁Commandments	-12137
▁Conservation	-12138
▁acknowledged	-12139
▁administered	-12140
▁collaborated	-12141
▁highlighters	-12142
▁predominantly	-12143
▁Northumberland	-12144
▁internationally	-12145
BO	-12146
iu	-12147
km	-12148
és	-12149
apy	-12150
boy	-12151
byn	-12152
gom	-12153
haw	-12154
ilo	-12155
oft	-12156
pan	-12157
rah	-12158
rat	-12159
▁Fa	-12160
▁Fu	-12161
▁Na	-12162
▁Uk	-12163
▁ko	-12164
abel	-12165
anga	-12166
apol	-12167
ayan	-12168
ayne	-12169
bird	-12170
bone	-12171
care	-12172
enne	-12173
hatt	-12174
imol	-12175
irus	-12176
nery	-12177
nows	-12178
ribe	-12179
ucts	-12180
▁Cel	-12181
▁Cou	-12182
▁Cyn	-12183
▁Din	-12184
▁Doc	-12185
▁Hem	-12186
▁Kyl	-12187
▁Nam	-12188
▁Ord	-12189
▁ROK	-12190
▁Seb	-12191
▁Tab	-12192
▁Tit	-12193
▁ank	-12194
▁gem	-12195
▁gra	-12196
▁nom	-12197
▁rit	-12198
▁spo	-12199
andal	-12200
asted	-12201
avian	-12202
boats	-12203
edict	-12204
ibble	-12205
leans	-12206
olics	-12207
onsin	-12208
quest	-12209
stage	-12210
stown	-12211
▁Aden	-12212
▁Bono	-12213
▁Buck	-12214
▁Cary	-12215
▁Cult	-12216
▁Desc	-12217
▁Earn	-12218
▁Elsa	-12219
▁Evan	-12220
▁Goat	-12221
▁Gret	-12222
▁Guth	-12223
▁Luna	-12224
▁Mail	-12225
▁Math	-12226
▁Prop	-12227
▁Seth	-12228
▁Shaw	-12229
▁Utah	-12230
▁Well	-12231
▁Wilf	-12232
▁Wisc	-12233
▁Xbox	-12234
▁bush	-12235
▁busy	-12236
▁cock	-12237
▁foss	-12238
▁gene	-12239
▁hier	-12240
▁leop	-12241
▁mood	-12242
▁outs	-12243
▁pist	-12244
▁pulp	-12245
▁topp	-12246
▁tubs	-12247
▁vend	-12248
▁vest	-12249
▁worn	-12250
ashire	-12251
castle	-12252
gomery	-12253
houses	-12254
istant	-12255
ocaust	-12256
omical	-12257
sticks	-12258
umping	-12259
▁Ahmed	-12260
▁Becky	-12261
▁Carty	-12262
▁Clair	-12263
▁Corey	-12264
▁Drive	-12265
▁Falls	-12266
▁Isles	-12267
▁Joyce	-12268
▁Marco	-12269
▁Mayor	-12270
▁Merri	-12271
▁Metro	-12272
▁Robyn	-12273
▁Templ	-12274
▁Veeru	-12275
▁Wendy	-12276
▁Winds	-12277
▁Worth	-12278
▁accus	-12279
▁acute	-12280
▁angry	-12281
▁artif	-12282
▁chlor	-12283
▁exams	-12284
▁flown	-12285
▁hence	-12286
▁hypot	-12287
▁joins	-12288
▁junta	-12289
▁loose	-12290
▁loved	-12291
▁postc	-12292
▁probe	-12293
▁shamp	-12294
▁spell	-12295
▁users	-12296
edition	-12297
ipality	-12298
issions	-12299
limited	-12300
onation	-12301
▁Cruise	-12302
▁Doctor	-12303
▁Finley	-12304
▁Flying	-12305
▁Galile	-12306
▁Gothic	-12307
▁Hairan	-12308
▁Harmon	-12309
▁Jagann	-12310
▁Mariah	-12311
▁Metall	-12312
▁Mostar	-12313
▁Ojibwe	-12314
▁Ortona	-12315
▁Places	-12316
▁Pokiri	-12317
▁Wright	-12318
▁arcade	-12319
▁autobi	-12320
▁breeds	-12321
▁chains	-12322
▁cruise	-12323
▁extens	-12324
▁finest	-12325
▁gaming	-12326
▁gendar	-12327
▁indoor	-12328
▁linear	-12329
▁mutual	-12330
▁occupy	-12331
▁poodle	-12332
▁seized	-12333
▁sketch	-12334
▁spaced	-12335
▁steaks	-12336
▁straws	-12337
▁themed	-12338
▁voting	-12339
isations	-12340
otherapy	-12341
▁Actress	-12342
▁Austria	-12343
▁Broncos	-12344
▁Earnest	-12345
▁Felicia	-12346
▁Guthrie	-12347
▁Lindsay	-12348
▁Machine	-12349
▁Nazaire	-12350
▁Officer	-12351
▁Orleans	-12352
▁Outside	-12353
▁Phoenix	-12354
▁Russell	-12355
▁advised	-12356
▁affairs	-12357
▁auction	-12358
▁cabinet	-12359
▁coconut	-12360
▁couples	-12361
▁diverse	-12362
▁frigate	-12363
▁graphic	-12364
▁grasses	-12365
▁ignored	-12366
▁imagery	-12367
▁kinderg	-12368
▁lengths	-12369
▁lifting	-12370
▁loading	-12371
▁marched	-12372
▁minnows	-12373
▁museums	-12374
▁pigeons	-12375
▁pushing	-12376
▁secular	-12377
▁shifted	-12378
▁streams	-12379
▁tuition	-12380
▁typhoon	-12381
elligence	-12382
▁Airlines	-12383
▁Benedict	-12384
▁Computer	-12385
▁Guinness	-12386
▁Michelle	-12387
▁adoption	-12388
▁attorney	-12389
▁blockade	-12390
▁bouquets	-12391
▁circular	-12392
▁deciding	-12393
▁deterior	-12394
▁elevator	-12395
▁familiar	-12396
▁focusing	-12397
▁frigates	-12398
▁garnered	-12399
▁insisted	-12400
▁monaster	-12401
▁ordinary	-12402
▁redesign	-12403
▁relieved	-12404
▁repaired	-12405
▁Destroyer	-12406
▁Kaimanawa	-12407
▁Wisconsin	-12408
▁averaging	-12409
▁condemned	-12410
▁correctly	-12411
▁decreased	-12412
▁dependent	-12413
▁ducklings	-12414
▁guitarist	-12415
▁incorrect	-12416
▁intercept	-12417
▁macaroons	-12418
▁naturally	-12419
▁persisted	-12420
▁reactions	-12421
▁rendition	-12422
▁solitaire	-12423
▁textbooks	-12424
▁transform	-12425
▁witnessed	-12426
▁Expressway	-12427
▁Lancashire	-12428
▁Merrifield	-12429
▁Montgomery	-12430
▁candidates	-12431
▁cheesecake	-12432
▁classmates	-12433
▁commentary	-12434
▁constantly	-12435
▁counteratt	-12436
▁delivering	-12437
▁discounted	-12438
▁elementary	-12439
▁fertilizer	-12440
▁grandchild	-12441
▁manuscript	-12442
▁screenplay	-12443
▁unexpected	-12444
▁Performance	-12445
▁Susquehanna	-12446
▁connections	-12447
▁examination	-12448
▁jackrabbits	-12449
▁milliliters	-12450
▁multiplayer	-12451
▁subtracting	-12452
▁topological	-12453
▁interception	-12454
▁overwhelming	-12455
▁concentration	-12456
FL	-12457
bb	-12458
ml	-12459
él	-12460
▁u	-12461
aft	-12462
bot	-12463
idd	-12464
nut	-12465
ocy	-12466
rad	-12467
tar	-12468
▁Ay	-12469
▁Da	-12470
▁IA	-12471
▁NM	-12472
▁SU	-12473
▁VI	-12474
▁yl	-12475
abad	-12476
adic	-12477
assy	-12478
cena	-12479
east	-12480
enny	-12481
flow	-12482
gins	-12483
iast	-12484
idia	-12485
igen	-12486
igon	-12487
iked	-12488
krit	-12489
oirs	-12490
raid	-12491
rice	-12492
ruff	-12493
town	-12494
uchi	-12495
uded	-12496
▁Box	-12497
▁Fab	-12498
▁Hit	-12499
▁Kin	-12500
▁Mak	-12501
▁McK	-12502
▁Mix	-12503
▁Nig	-12504
▁Tan	-12505
▁Tob	-12506
▁Vel	-12507
▁Vul	-12508
▁joy	-12509
▁meg	-12510
▁odd	-12511
▁sic	-12512
▁urg	-12513
aders	-12514
aland	-12515
amics	-12516
anner	-12517
annes	-12518
cimol	-12519
eness	-12520
eping	-12521
erior	-12522
fting	-12523
hmael	-12524
ieces	-12525
inich	-12526
marks	-12527
merie	-12528
onium	-12529
otted	-12530
uckle	-12531
usade	-12532
▁Alfa	-12533
▁Boot	-12534
▁Chau	-12535
▁Circ	-12536
▁Emil	-12537
▁FITs	-12538
▁Gray	-12539
▁Hadd	-12540
▁Hern	-12541
▁Hoys	-12542
▁Hugo	-12543
▁José	-12544
▁Mend	-12545
▁Mile	-12546
▁Unit	-12547
▁alco	-12548
▁amph	-12549
▁atop	-12550
▁bark	-12551
▁bold	-12552
▁cott	-12553
▁dual	-12554
▁fier	-12555
▁gard	-12556
▁genu	-12557
▁glac	-12558
▁goat	-12559
▁grab	-12560
▁lect	-12561
▁lies	-12562
▁obsc	-12563
▁pant	-12564
▁repr	-12565
▁shat	-12566
▁silk	-12567
▁spur	-12568
▁tool	-12569
▁toss	-12570
▁zero	-12571
alsock	-12572
alties	-12573
elaide	-12574
ellers	-12575
gosaur	-12576
otilla	-12577
ounted	-12578
udding	-12579
vation	-12580
▁Adult	-12581
▁Being	-12582
▁Craig	-12583
▁Derby	-12584
▁Dodge	-12585
▁Ellen	-12586
▁Fruit	-12587
▁Heavy	-12588
▁Jacqu	-12589
▁Jesse	-12590
▁Miles	-12591
▁Month	-12592
▁Paula	-12593
▁Penny	-12594
▁Piper	-12595
▁Stand	-12596
▁Still	-12597
▁Twins	-12598
▁audio	-12599
▁banks	-12600
▁champ	-12601
▁dryer	-12602
▁enorm	-12603
▁farms	-12604
▁femin	-12605
▁gauge	-12606
▁gills	-12607
▁lacks	-12608
▁lambs	-12609
▁maneu	-12610
▁pamph	-12611
▁polar	-12612
▁prest	-12613
▁reass	-12614
▁repet	-12615
▁skate	-12616
▁skele	-12617
▁smoke	-12618
▁sours	-12619
▁stern	-12620
▁swept	-12621
▁syrup	-12622
▁therm	-12623
▁toads	-12624
▁truly	-12625
▁urged	-12626
claimed	-12627
osexual	-12628
rescent	-12629
writers	-12630
▁Action	-12631
▁Arnold	-12632
▁Browns	-12633
▁Cadets	-12634
▁Cherry	-12635
▁Comair	-12636
▁Connor	-12637
▁Dumpty	-12638
▁Javier	-12639
▁Murphy	-12640
▁Return	-12641
▁Rodney	-12642
▁Rowley	-12643
▁Studio	-12644
▁Tucker	-12645
▁Wolver	-12646
▁apiece	-12647
▁blamed	-12648
▁deGrom	-12649
▁deeply	-12650
▁deputy	-12651
▁dreadn	-12652
▁fairly	-12653
▁halted	-12654
▁hungry	-12655
▁incons	-12656
▁incred	-12657
▁lesser	-12658
▁metaph	-12659
▁nickel	-12660
▁output	-12661
▁racers	-12662
▁retain	-12663
▁runner	-12664
▁sacrif	-12665
▁shifts	-12666
▁sliced	-12667
▁stanza	-12668
▁strain	-12669
▁sympat	-12670
▁theore	-12671
▁trails	-12672
▁tunnel	-12673
▁umpire	-12674
▁whites	-12675
▁Brendan	-12676
▁Cruiser	-12677
▁Feldman	-12678
▁Herbert	-12679
▁Ishmael	-12680
▁Profess	-12681
▁Volunte	-12682
▁anthrop	-12683
▁batting	-12684
▁bombing	-12685
▁dessert	-12686
▁distant	-12687
▁doctors	-12688
▁enabled	-12689
▁flooded	-12690
▁guarant	-12691
▁hotdogs	-12692
▁lasting	-12693
▁notices	-12694
▁obvious	-12695
▁radical	-12696
▁replied	-12697
▁rituals	-12698
▁scarves	-12699
▁sinking	-12700
▁statute	-12701
▁stretch	-12702
▁striker	-12703
▁suicide	-12704
▁supreme	-12705
▁threats	-12706
▁totaled	-12707
▁venture	-12708
▁villain	-12709
▁vinegar	-12710
rehensive	-12711
▁Adelaide	-12712
▁Aircraft	-12713
▁Danielle	-12714
▁Immortal	-12715
▁Kentucky	-12716
▁Leonardo	-12717
▁Magdalen	-12718
▁Patricia	-12719
▁Sanskrit	-12720
▁antacids	-12721
▁belonged	-12722
▁carriage	-12723
▁coconuts	-12724
▁connects	-12725
▁costumes	-12726
▁coverage	-12727
▁crickets	-12728
▁defender	-12729
▁dressing	-12730
▁emotions	-12731
▁exciting	-12732
▁grandson	-12733
▁haircuts	-12734
▁honorary	-12735
▁inducted	-12736
▁maturity	-12737
▁mentions	-12738
▁nickname	-12739
▁notebook	-12740
▁opposing	-12741
▁princess	-12742
▁proceeds	-12743
▁steadily	-12744
▁thoughts	-12745
▁tourists	-12746
▁township	-12747
▁turbines	-12748
▁uniforms	-12749
▁upcoming	-12750
▁Athletics	-12751
▁Gabrielle	-12752
▁Gwendolen	-12753
▁Including	-12754
▁Jagannadh	-12755
▁Loyalsock	-12756
▁Nicholson	-12757
▁Sovereign	-12758
▁admission	-12759
▁arguments	-12760
▁athletics	-12761
▁awareness	-12762
▁discontin	-12763
▁evacuated	-12764
▁fisherman	-12765
▁populated	-12766
▁portrayal	-12767
▁projected	-12768
▁prompting	-12769
▁recruited	-12770
▁respected	-12771
▁sponsored	-12772
▁Electronic	-12773
▁Industrial	-12774
▁aerodromes	-12775
▁biological	-12776
▁dedication	-12777
▁fatalities	-12778
▁friendship	-12779
▁fundraiser	-12780
▁graduating	-12781
▁horizontal	-12782
▁nineteenth	-12783
▁occasional	-12784
▁questioned	-12785
▁remarkable	-12786
▁songwriter	-12787
▁approaching	-12788
▁bombardment	-12789
▁collections	-12790
▁legislature	-12791
▁permanently	-12792
▁prosecution	-12793
▁speculation	-12794
▁transformed	-12795
▁Intelligence	-12796
▁accomplished	-12797
▁chemotherapy	-12798
▁denomination	-12799
▁individually	-12800
▁measurements	-12801
▁similarities	-12802
▁Unfortunately	-12803
▁rehabilitation	-12804
CE	-12805
CW	-12806
ci	-12807
fa	-12808
sl	-12809
hyd	-12810
iat	-12811
ikk	-12812
iph	-12813
irm	-12814
oga	-12815
opy	-12816
uto	-12817
vol	-12818
▁Ey	-12819
▁Il	-12820
▁Lt	-12821
▁NP	-12822
▁Sb	-12823
▁Ty	-12824
ambo	-12825
ampa	-12826
cock	-12827
dict	-12828
elli	-12829
elyn	-12830
held	-12831
idan	-12832
idel	-12833
iffe	-12834
mans	-12835
orge	-12836
oven	-12837
roft	-12838
▁Fat	-12839
▁Has	-12840
▁Kaw	-12841
▁NFL	-12842
▁Pra	-12843
▁RAR	-12844
▁Sak	-12845
▁Sic	-12846
▁Typ	-12847
▁Viv	-12848
▁cyl	-12849
▁lbs	-12850
▁mad	-12851
▁pla	-12852
▁tad	-12853
▁vig	-12854
▁vit	-12855
▁vow	-12856
acket	-12857
agged	-12858
andin	-12859
arsha	-12860
aults	-12861
borne	-12862
insky	-12863
lette	-12864
north	-12865
odied	-12866
oksey	-12867
owder	-12868
poles	-12869
riors	-12870
space	-12871
store	-12872
▁Boat	-12873
▁Bore	-12874
▁Case	-12875
▁Cher	-12876
▁Drum	-12877
▁Flet	-12878
▁Have	-12879
▁IAAF	-12880
▁Indu	-12881
▁Kris	-12882
▁Lear	-12883
▁MDOT	-12884
▁NCAA	-12885
▁Nile	-12886
▁Pend	-12887
▁Pond	-12888
▁Pupp	-12889
▁Serb	-12890
▁Trey	-12891
▁Visc	-12892
▁cage	-12893
▁dads	-12894
▁dece	-12895
▁dodo	-12896
▁funk	-12897
▁garb	-12898
▁hire	-12899
▁hybr	-12900
▁jeal	-12901
▁mate	-12902
▁pier	-12903
▁ranc	-12904
▁slee	-12905
aching	-12906
ailand	-12907
cluded	-12908
enburg	-12909
esters	-12910
finals	-12911
iating	-12912
olving	-12913
ounced	-12914
unnies	-12915
▁Chess	-12916
▁Dance	-12917
▁Eddie	-12918
▁Eleph	-12919
▁Fifth	-12920
▁Henri	-12921
▁Josce	-12922
▁Marcy	-12923
▁Oreos	-12924
▁Robin	-12925
▁Ruler	-12926
▁Shawn	-12927
▁Small	-12928
▁Syria	-12929
▁Talia	-12930
▁Wayne	-12931
▁annoy	-12932
▁cable	-12933
▁chanc	-12934
▁claws	-12935
▁crows	-12936
▁dense	-12937
▁dying	-12938
▁error	-12939
▁fails	-12940
▁hairs	-12941
▁incom	-12942
▁kilos	-12943
▁paths	-12944
▁popul	-12945
▁presc	-12946
▁proof	-12947
▁quake	-12948
▁reapp	-12949
▁robot	-12950
▁sixty	-12951
▁sized	-12952
▁sizes	-12953
▁slave	-12954
▁tiger	-12955
▁tough	-12956
▁tricy	-12957
▁weeds	-12958
▁zones	-12959
acharya	-12960
embered	-12961
▁Albion	-12962
▁Ashley	-12963
▁Braves	-12964
▁Candid	-12965
▁Delano	-12966
▁Father	-12967
▁Harvey	-12968
▁Hospit	-12969
▁Indies	-12970
▁Judith	-12971
▁Medway	-12972
▁Saigon	-12973
▁Shelly	-12974
▁Social	-12975
▁Vaishn	-12976
▁Valent	-12977
▁Vargas	-12978
▁Warsaw	-12979
▁assert	-12980
▁audiob	-12981
▁barons	-12982
▁cannon	-12983
▁concur	-12984
▁constr	-12985
▁cooked	-12986
▁detect	-12987
▁facult	-12988
▁fights	-12989
▁funded	-12990
▁genres	-12991
▁grandp	-12992
▁iPhone	-12993
▁intact	-12994
▁layers	-12995
▁litter	-12996
▁melody	-12997
▁omelet	-12998
▁radius	-12999
▁refurb	-13000
▁rubble	-13001
▁shower	-13002
▁slower	-13003
▁spoken	-13004
▁thesis	-13005
▁transc	-13006
▁varies	-13007
▁Chamber	-13008
▁Chauvel	-13009
▁Cooksey	-13010
▁Gallery	-13011
▁Jeffrey	-13012
▁Journey	-13013
▁Knights	-13014
▁Liberty	-13015
▁Matilda	-13016
▁Melissa	-13017
▁Mission	-13018
▁Pauline	-13019
▁Turkish	-13020
▁Vistara	-13021
▁bishops	-13022
▁brigade	-13023
▁cameras	-13024
▁colours	-13025
▁conspir	-13026
▁cousins	-13027
▁diamond	-13028
▁honours	-13029
▁lottery	-13030
▁noticed	-13031
▁recipes	-13032
▁reperto	-13033
▁sailing	-13034
▁sausage	-13035
▁shampoo	-13036
▁sharing	-13037
▁symbols	-13038
▁totally	-13039
▁triumph	-13040
▁unclear	-13041
▁Basement	-13042
▁Brothers	-13043
▁Champion	-13044
▁Confeder	-13045
▁Italians	-13046
▁Michaels	-13047
▁Viscount	-13048
▁adequate	-13049
▁advances	-13050
▁commerce	-13051
▁controls	-13052
▁deadline	-13053
▁elevated	-13054
▁eligible	-13055
▁everyday	-13056
▁examined	-13057
▁gasoline	-13058
▁handling	-13059
▁heritage	-13060
▁imported	-13061
▁landings	-13062
▁likewise	-13063
▁mainland	-13064
▁managers	-13065
▁millimet	-13066
▁minority	-13067
▁performs	-13068
▁publicly	-13069
▁reporter	-13070
▁rotation	-13071
▁shortest	-13072
▁targeted	-13073
▁teammate	-13074
▁tomorrow	-13075
ographical	-13076
▁Executive	-13077
▁Holocaust	-13078
▁Hospitall	-13079
▁addressed	-13080
▁alignment	-13081
▁disbanded	-13082
▁exercised	-13083
▁fragments	-13084
▁framework	-13085
▁memorable	-13086
▁molecules	-13087
▁possessed	-13088
▁relocated	-13089
▁seventeen	-13090
▁spaceship	-13091
▁synthesis	-13092
▁Stansfield	-13093
▁battleship	-13094
▁commanders	-13095
▁conviction	-13096
▁discussing	-13097
▁downstream	-13098
▁electrical	-13099
▁enclosures	-13100
▁explaining	-13101
▁mysterious	-13102
▁perception	-13103
▁practicing	-13104
▁progressed	-13105
▁prohibited	-13106
▁repeatedly	-13107
▁suggestion	-13108
▁victorious	-13109
▁Confederate	-13110
▁Information	-13111
▁accumulated	-13112
▁complicated	-13113
▁cooperation	-13114
▁discussions	-13115
▁dissipating	-13116
▁educational	-13117
▁expeditions	-13118
▁exploration	-13119
▁helicopters	-13120
▁illustrated	-13121
▁outstanding	-13122
▁Consequently	-13123
▁Subsequently	-13124
▁achievements	-13125
▁conservative	-13126
▁negotiations	-13127
▁presidential	-13128
▁supernatural	-13129
▁characterised	-13130
▁contributions	-13131
▁participation	-13132
▁advertisements	-13133
CS	-13134
OM	-13135
Sh	-13136
pg	-13137
xd	-13138
acc	-13139
arr	-13140
fif	-13141
loo	-13142
lot	-13143
oir	-13144
oly	-13145
opp	-13146
yon	-13147
▁AS	-13148
▁CG	-13149
▁Ok	-13150
▁Ow	-13151
▁UC	-13152
Down	-13153
acea	-13154
athy	-13155
cade	-13156
colm	-13157
enna	-13158
geon	-13159
iets	-13160
ints	-13161
lett	-13162
lies	-13163
oina	-13164
oise	-13165
oved	-13166
phan	-13167
poin	-13168
rols	-13169
rome	-13170
udge	-13171
umin	-13172
urst	-13173
▁Ahk	-13174
▁Chu	-13175
▁Cit	-13176
▁Ech	-13177
▁Eps	-13178
▁Era	-13179
▁Heb	-13180
▁Ist	-13181
▁Jai	-13182
▁Kai	-13183
▁Ker	-13184
▁Ket	-13185
▁MPH	-13186
▁Maj	-13187
▁Ors	-13188
▁Pas	-13189
▁SEC	-13190
▁SMS	-13191
▁Spe	-13192
▁Sri	-13193
▁coy	-13194
▁dat	-13195
▁dru	-13196
▁dug	-13197
▁dye	-13198
▁jam	-13199
▁mos	-13200
▁nut	-13201
▁ode	-13202
aceae	-13203
aguar	-13204
annon	-13205
aples	-13206
avers	-13207
ectic	-13208
inand	-13209
isham	-13210
isons	-13211
lects	-13212
leted	-13213
meter	-13214
olulu	-13215
ostic	-13216
owned	-13217
tains	-13218
tures	-13219
uster	-13220
▁Anat	-13221
▁Andr	-13222
▁Anti	-13223
▁Bord	-13224
▁Buen	-13225
▁Fear	-13226
▁Fitz	-13227
▁Glas	-13228
▁Hass	-13229
▁Joel	-13230
▁Levi	-13231
▁LiSA	-13232
▁Lion	-13233
▁Luis	-13234
▁McLu	-13235
▁Meth	-13236
▁Mint	-13237
▁Noah	-13238
▁Ohio	-13239
▁Pear	-13240
▁PopM	-13241
▁Raph	-13242
▁Rear	-13243
▁Reub	-13244
▁Rows	-13245
▁Rush	-13246
▁Seas	-13247
▁Site	-13248
▁Tiff	-13249
▁Vick	-13250
▁Wave	-13251
▁agar	-13252
▁beta	-13253
▁cone	-13254
▁dawn	-13255
▁dign	-13256
▁ease	-13257
▁empl	-13258
▁hood	-13259
▁hook	-13260
▁lays	-13261
▁lord	-13262
▁thro	-13263
▁till	-13264
▁vase	-13265
▁vibr	-13266
▁wool	-13267
aceous	-13268
apolis	-13269
hening	-13270
herson	-13271
ifting	-13272
inging	-13273
isible	-13274
market	-13275
rypton	-13276
screen	-13277
shaped	-13278
ussion	-13279
▁Agnes	-13280
▁Bloom	-13281
▁Breed	-13282
▁Brent	-13283
▁Bruns	-13284
▁Byron	-13285
▁Exper	-13286
▁Faith	-13287
▁Given	-13288
▁Haley	-13289
▁Happy	-13290
▁Jorge	-13291
▁Liter	-13292
▁Llosa	-13293
▁Pedro	-13294
▁Plate	-13295
▁Schol	-13296
▁Singh	-13297
▁Smack	-13298
▁Style	-13299
▁Wally	-13300
▁bacon	-13301
▁caram	-13302
▁coven	-13303
▁debts	-13304
▁decks	-13305
▁ecosy	-13306
▁fever	-13307
▁fleas	-13308
▁funny	-13309
▁gloss	-13310
▁hopes	-13311
▁hyper	-13312
▁loyal	-13313
▁march	-13314
▁medic	-13315
▁moder	-13316
▁mound	-13317
▁noble	-13318
▁opted	-13319
▁penet	-13320
▁progn	-13321
▁rebel	-13322
▁recip	-13323
▁rises	-13324
▁salon	-13325
▁scout	-13326
▁spare	-13327
▁spill	-13328
▁tired	-13329
▁wreck	-13330
astered	-13331
aughter	-13332
irected	-13333
quarter	-13334
rection	-13335
rolling	-13336
▁Across	-13337
▁Barnes	-13338
▁Design	-13339
▁Duarte	-13340
▁Econom	-13341
▁Energy	-13342
▁Harsha	-13343
▁Jayden	-13344
▁Kelsey	-13345
▁Louise	-13346
▁Luther	-13347
▁Marvin	-13348
▁Mickey	-13349
▁Mulder	-13350
▁Puerto	-13351
▁Richie	-13352
▁Robbie	-13353
▁Single	-13354
▁Stokes	-13355
▁Strong	-13356
▁Travel	-13357
▁Vishnu	-13358
▁affect	-13359
▁archer	-13360
▁bypass	-13361
▁cement	-13362
▁convey	-13363
▁corrid	-13364
▁desper	-13365
▁dreams	-13366
▁errors	-13367
▁essays	-13368
▁facade	-13369
▁forget	-13370
▁gentle	-13371
▁gospel	-13372
▁harbor	-13373
▁hiatus	-13374
▁insult	-13375
▁judged	-13376
▁lifted	-13377
▁mining	-13378
▁packet	-13379
▁remind	-13380
▁seller	-13381
▁snails	-13382
▁steals	-13383
▁tasked	-13384
▁thanks	-13385
▁tribut	-13386
▁volley	-13387
▁vulner	-13388
etheless	-13389
lessness	-13390
numbered	-13391
▁Allison	-13392
▁Borough	-13393
▁Carolyn	-13394
▁Domoina	-13395
▁Grayson	-13396
▁Greater	-13397
▁Indians	-13398
▁Malcolm	-13399
▁Scandin	-13400
▁Senator	-13401
▁Soviets	-13402
▁Studies	-13403
▁Support	-13404
▁beaches	-13405
▁binding	-13406
▁cartoon	-13407
▁confirm	-13408
▁debated	-13409
▁dissent	-13410
▁drivers	-13411
▁dynamic	-13412
▁garbage	-13413
▁haircut	-13414
▁hanging	-13415
▁hurdles	-13416
▁jealous	-13417
▁lighter	-13418
▁lizards	-13419
▁lowered	-13420
▁markets	-13421
▁militia	-13422
▁nursery	-13423
▁patient	-13424
▁patrols	-13425
▁printer	-13426
▁promise	-13427
▁reduces	-13428
▁routine	-13429
▁shipped	-13430
▁studios	-13431
▁thereby	-13432
▁traders	-13433
▁warfare	-13434
▁widgets	-13435
continent	-13436
▁Adriatic	-13437
▁Brighton	-13438
▁Buddhist	-13439
▁Observer	-13440
▁Portugal	-13441
▁Thailand	-13442
▁armoured	-13443
▁assuming	-13444
▁basement	-13445
▁biblical	-13446
▁catching	-13447
▁clusters	-13448
▁commence	-13449
▁concepts	-13450
▁cyclones	-13451
▁damaging	-13452
▁deposits	-13453
▁distract	-13454
▁editions	-13455
▁eleventh	-13456
▁enrolled	-13457
▁entirety	-13458
▁floating	-13459
▁fortress	-13460
▁graduate	-13461
▁isotopes	-13462
▁popsicle	-13463
▁shelters	-13464
▁sneakers	-13465
▁sometime	-13466
▁survival	-13467
▁tadpoles	-13468
▁thirteen	-13469
▁thorough	-13470
▁violacea	-13471
▁weakness	-13472
▁Blackburn	-13473
▁Brunswick	-13474
▁Catholics	-13475
▁Ferdinand	-13476
▁Nashville	-13477
▁Sebastian	-13478
▁SmackDown	-13479
▁Universal	-13480
▁advocated	-13481
▁alternate	-13482
▁crusaders	-13483
▁ecosystem	-13484
▁expecting	-13485
▁instances	-13486
▁microscop	-13487
▁partition	-13488
▁rebellion	-13489
▁shipments	-13490
▁squirrels	-13491
▁stability	-13492
▁witnesses	-13493
▁Constantin	-13494
▁Expedition	-13495
▁Laboratory	-13496
▁Paralympic	-13497
▁comprising	-13498
▁impressive	-13499
▁motorcycle	-13500
▁reflecting	-13501
▁repertoire	-13502
▁sunflowers	-13503
▁traditions	-13504
▁understood	-13505
▁Springfield	-13506
▁agriculture	-13507
▁competitors	-13508
▁consequence	-13509
▁coordinated	-13510
▁dissolution	-13511
▁intelligent	-13512
▁investigate	-13513
▁volunteered	-13514
▁collectively	-13515
▁congregation	-13516
▁downloadable	-13517
▁humanitarian	-13518
▁organisation	-13519
▁recreational	-13520
▁refrigerator	-13521
▁sufficiently	-13522
▁transporting	-13523
▁comprehensive	-13524
▁corresponding	-13525
▁demonstration	-13526
▁organisations	-13527
▁participating	-13528
▁precipitation	-13529
▁interpretation	-13530
IT	-13531
di	-13532
)*$	-13533
ahu	-13534
apa	-13535
cha	-13536
cor	-13537
dia	-13538
iki	-13539
rez	-13540
urp	-13541
uve	-13542
▁Ob	-13543
▁Wa	-13544
ESCO	-13545
ablo	-13546
etta	-13547
five	-13548
hind	-13549
holm	-13550
inqu	-13551
iona	-13552
iths	-13553
kers	-13554
mart	-13555
omed	-13556
rink	-13557
rors	-13558
udor	-13559
usil	-13560
velt	-13561
▁Aff	-13562
▁Bes	-13563
▁Bun	-13564
▁Dow	-13565
▁Dry	-13566
▁Ent	-13567
▁Hyd	-13568
▁Jed	-13569
▁Mik	-13570
▁Moz	-13571
▁Occ	-13572
▁Sad	-13573
▁Saw	-13574
▁Vig	-13575
▁Wey	-13576
▁cra	-13577
▁dim	-13578
▁jaw	-13579
▁nap	-13580
▁twe	-13581
acrit	-13582
adows	-13583
asant	-13584
brush	-13585
ellor	-13586
erner	-13587
front	-13588
liked	-13589
olese	-13590
orian	-13591
osely	-13592
sized	-13593
uveer	-13594
▁Amun	-13595
▁Boss	-13596
▁Bull	-13597
▁Coss	-13598
▁Dahl	-13599
▁Dani	-13600
▁Fisc	-13601
▁Folk	-13602
▁Fund	-13603
▁Gael	-13604
▁Isle	-13605
▁Jens	-13606
▁Katy	-13607
▁Kurt	-13608
▁Lara	-13609
▁Lola	-13610
▁Lore	-13611
▁Mann	-13612
▁Mess	-13613
▁Must	-13614
▁Pand	-13615
▁Seym	-13616
▁Shan	-13617
▁Spir	-13618
▁Wang	-13619
▁boom	-13620
▁boot	-13621
▁echo	-13622
▁fron	-13623
▁judo	-13624
▁oven	-13625
▁sank	-13626
▁slip	-13627
▁taxi	-13628
▁tile	-13629
▁tong	-13630
▁tube	-13631
▁tune	-13632
▁unic	-13633
▁wart	-13634
abytes	-13635
ainted	-13636
aneous	-13637
antine	-13638
fifths	-13639
master	-13640
stones	-13641
thodox	-13642
▁Chanc	-13643
▁Clara	-13644
▁Coach	-13645
▁Erica	-13646
▁Greta	-13647
▁Jared	-13648
▁Karam	-13649
▁Medal	-13650
▁Polly	-13651
▁Ramon	-13652
▁Roose	-13653
▁Stars	-13654
▁Tamil	-13655
▁Trade	-13656
▁Using	-13657
▁Woody	-13658
▁aided	-13659
▁aisle	-13660
▁antib	-13661
▁blind	-13662
▁blues	-13663
▁brows	-13664
▁burnt	-13665
▁casem	-13666
▁chalk	-13667
▁decis	-13668
▁dried	-13669
▁drown	-13670
▁filmm	-13671
▁gover	-13672
▁hires	-13673
▁logic	-13674
▁maths	-13675
▁megal	-13676
▁moons	-13677
▁papal	-13678
▁radar	-13679
▁reinc	-13680
▁roofs	-13681
▁stair	-13682
▁stere	-13683
▁suite	-13684
▁tends	-13685
▁tying	-13686
▁uncon	-13687
acritic	-13688
erneath	-13689
ighters	-13690
instein	-13691
itional	-13692
ocratic	-13693
ountain	-13694
▁Adrian	-13695
▁Archer	-13696
▁Artist	-13697
▁Bruges	-13698
▁Clocks	-13699
▁Escape	-13700
▁Foster	-13701
▁Hebrew	-13702
▁Kubica	-13703
▁Ludlow	-13704
▁Mobile	-13705
▁Nelson	-13706
▁Others	-13707
▁Palmer	-13708
▁Rovers	-13709
▁Shadow	-13710
▁Sidney	-13711
▁Things	-13712
▁UNESCO	-13713
▁acorns	-13714
▁coined	-13715
▁explan	-13716
▁feared	-13717
▁fridge	-13718
▁frozen	-13719
▁guards	-13720
▁harmon	-13721
▁honest	-13722
▁median	-13723
▁poetic	-13724
▁poured	-13725
▁proced	-13726
▁rotten	-13727
▁sprink	-13728
▁tradem	-13729
▁virtue	-13730
▁voyage	-13731
▁yogurt	-13732
entation	-13733
ickenham	-13734
speaking	-13735
▁Chapman	-13736
▁Chester	-13737
▁Fiction	-13738
▁Fischer	-13739
▁Haddock	-13740
▁Liberal	-13741
▁Lowland	-13742
▁McLuhan	-13743
▁Proctor	-13744
▁Royston	-13745
▁Sabrina	-13746
▁Tiffany	-13747
▁Timothy	-13748
▁bunnies	-13749
▁chooses	-13750
▁costume	-13751
▁crashed	-13752
▁crucial	-13753
▁curries	-13754
▁elderly	-13755
▁faculty	-13756
▁fingers	-13757
▁forever	-13758
▁healthy	-13759
▁listing	-13760
▁mileage	-13761
▁monitor	-13762
▁painter	-13763
▁pockets	-13764
▁prolong	-13765
▁rebound	-13766
▁recalls	-13767
▁refuses	-13768
▁smoking	-13769
▁substit	-13770
▁treason	-13771
abilities	-13772
▁Facebook	-13773
▁Reformed	-13774
▁Services	-13775
▁abnormal	-13776
▁airlines	-13777
▁athletic	-13778
▁bracelet	-13779
▁climbing	-13780
▁competed	-13781
▁constitu	-13782
▁enormous	-13783
▁evacuate	-13784
▁external	-13785
▁habitats	-13786
▁macarons	-13787
▁millions	-13788
▁monitors	-13789
▁passages	-13790
▁paycheck	-13791
▁precious	-13792
▁prolific	-13793
▁regained	-13794
▁removing	-13795
▁supports	-13796
▁toddlers	-13797
▁totaling	-13798
▁unemploy	-13799
▁whiskers	-13800
▁Congolese	-13801
▁Crusaders	-13802
▁Metallica	-13803
▁Parachute	-13804
▁Princeton	-13805
▁Raghuveer	-13806
▁Represent	-13807
▁Roosevelt	-13808
▁Wrestling	-13809
▁affecting	-13810
▁backwards	-13811
▁butterfly	-13812
▁campaigns	-13813
▁cardinals	-13814
▁comparing	-13815
▁confident	-13816
▁confusion	-13817
▁conscious	-13818
▁declaring	-13819
▁disciples	-13820
▁excellent	-13821
▁governing	-13822
▁hamburger	-13823
▁pepperoni	-13824
▁persuaded	-13825
▁poisoning	-13826
▁pseudonym	-13827
▁rearguard	-13828
▁requiring	-13829
▁signature	-13830
▁surprised	-13831
▁Adventures	-13832
▁Hindenburg	-13833
▁Metacritic	-13834
▁Underneath	-13835
▁Yugoslavia	-13836
▁adventures	-13837
▁challenged	-13838
▁commitment	-13839
▁concerning	-13840
▁definitely	-13841
▁dispatched	-13842
▁extraordin	-13843
▁imprisoned	-13844
▁instructed	-13845
▁phenomenon	-13846
▁provisions	-13847
▁qualifying	-13848
▁underwater	-13849
▁Confessions	-13850
▁countryside	-13851
▁declaration	-13852
▁descendants	-13853
▁essentially	-13854
▁extensively	-13855
▁overwhelmed	-13856
▁philosopher	-13857
▁sympathetic	-13858
▁Metropolitan	-13859
▁commercially	-13860
▁conventional	-13861
▁grandparents	-13862
▁incorporates	-13863
▁intellectual	-13864
▁presbyterian	-13865
▁Revolutionary	-13866
▁strengthening	-13867
▁unsuccessfully	-13868
)/	-13869
+.	-13870
OS	-13871
VI	-13872
ui	-13873
vi	-13874
wa	-13875
Oct	-13876
erb	-13877
eus	-13878
gow	-13879
iao	-13880
icz	-13881
ihu	-13882
kap	-13883
llo	-13884
oba	-13885
roe	-13886
uku	-13887
uta	-13888
vas	-13889
whe	-13890
éra	-13891
▁Od	-13892
▁Vl	-13893
acey	-13894
anim	-13895
ashi	-13896
ayas	-13897
bern	-13898
cars	-13899
dyss	-13900
elih	-13901
erre	-13902
heit	-13903
hett	-13904
iner	-13905
inis	-13906
itic	-13907
ools	-13908
orld	-13909
pike	-13910
rage	-13911
rhiz	-13912
ride	-13913
took	-13914
uche	-13915
ulum	-13916
umer	-13917
vial	-13918
wild	-13919
xter	-13920
yers	-13921
▁CAA	-13922
▁Cox	-13923
▁Fah	-13924
▁Get	-13925
▁Hus	-13926
▁ITV	-13927
▁Jin	-13928
▁Kid	-13929
▁Lim	-13930
▁Moh	-13931
▁Ori	-13932
▁Ras	-13933
▁Ric	-13934
▁Roc	-13935
▁Sug	-13936
▁Toy	-13937
▁Tzu	-13938
▁bom	-13939
▁cod	-13940
▁ecl	-13941
▁gay	-13942
▁ion	-13943
▁lib	-13944
▁mit	-13945
▁mow	-13946
▁mum	-13947
▁orb	-13948
▁raw	-13949
▁sew	-13950
▁wax	-13951
abits	-13952
aford	-13953
anian	-13954
anion	-13955
aping	-13956
archy	-13957
aroos	-13958
asses	-13959
casts	-13960
chair	-13961
court	-13962
elfth	-13963
etics	-13964
found	-13965
ierra	-13966
ilian	-13967
lesey	-13968
ollar	-13969
ompey	-13970
osity	-13971
ouche	-13972
ource	-13973
riers	-13974
rises	-13975
stock	-13976
ugged	-13977
verty	-13978
▁Anim	-13979
▁Bend	-13980
▁Cris	-13981
▁Crom	-13982
▁Erin	-13983
▁Finn	-13984
▁Flow	-13985
▁Hast	-13986
▁Hein	-13987
▁Hubb	-13988
▁Idol	-13989
▁Khoo	-13990
▁Lead	-13991
▁Main	-13992
▁Mood	-13993
▁NASA	-13994
▁Pesh	-13995
▁Phys	-13996
▁Poll	-13997
▁RIAA	-13998
▁Reed	-13999
▁Rico	-14000
▁Rita	-14001
▁Stay	-14002
▁Tank	-14003
▁Tele	-14004
▁Thor	-14005
▁Ward	-14006
▁abst	-14007
▁barn	-14008
▁demo	-14009
▁dirt	-14010
▁entr	-14011
▁fare	-14012
▁file	-14013
▁flaw	-14014
▁fond	-14015
▁forb	-14016
▁funn	-14017
▁gamb	-14018
▁kite	-14019
▁lamp	-14020
▁lens	-14021
▁lent	-14022
▁mans	-14023
▁oral	-14024
▁outp	-14025
▁pope	-14026
▁proc	-14027
▁prox	-14028
▁puma	-14029
▁riff	-14030
▁shed	-14031
▁shoe	-14032
▁span	-14033
▁stal	-14034
▁stip	-14035
▁synd	-14036
▁trap	-14037
Octane	-14038
aphore	-14039
berger	-14040
ennium	-14041
hattan	-14042
itious	-14043
lesund	-14044
omanry	-14045
ometry	-14046
tenham	-14047
▁Aires	-14048
▁Apost	-14049
▁Cecil	-14050
▁Chair	-14051
▁Champ	-14052
▁Drama	-14053
▁Edith	-14054
▁Ernie	-14055
▁Films	-14056
▁Fusil	-14057
▁Griff	-14058
▁Hutch	-14059
▁Joint	-14060
▁Kling	-14061
▁Kumar	-14062
▁Kylie	-14063
▁Lakes	-14064
▁Lions	-14065
▁Molly	-14066
▁Munic	-14067
▁Nigel	-14068
▁Odyss	-14069
▁Ports	-14070
▁Quinn	-14071
▁Riley	-14072
▁Strat	-14073
▁Tudor	-14074
▁Turks	-14075
▁Woman	-14076
▁Works	-14077
▁Years	-14078
▁anger	-14079
▁annex	-14080
▁arose	-14081
▁atoms	-14082
▁auton	-14083
▁capit	-14084
▁cease	-14085
▁cloth	-14086
▁corps	-14087
▁cryst	-14088
▁dimin	-14089
▁drugs	-14090
▁enact	-14091
▁fears	-14092
▁flows	-14093
▁fract	-14094
▁genes	-14095
▁hawks	-14096
▁hosts	-14097
▁niece	-14098
▁optim	-14099
▁overt	-14100
▁parad	-14101
▁punct	-14102
▁regul	-14103
▁resur	-14104
▁sacks	-14105
▁scope	-14106
▁shaft	-14107
▁squat	-14108
▁tails	-14109
▁twigs	-14110
▁waste	-14111
▁wheat	-14112
▁worse	-14113
brushes	-14114
cussion	-14115
elihood	-14116
ertiary	-14117
isphere	-14118
istingu	-14119
onsense	-14120
renheit	-14121
rington	-14122
ropolis	-14123
▁Annals	-14124
▁Buenos	-14125
▁Carmen	-14126
▁Danger	-14127
▁Flower	-14128
▁Former	-14129
▁Gaelic	-14130
▁Greece	-14131
▁Harper	-14132
▁Indeed	-14133
▁Jessie	-14134
▁Labour	-14135
▁Moving	-14136
▁Nevers	-14137
▁Ostend	-14138
▁Period	-14139
▁Pompey	-14140
▁Rowson	-14141
▁Scheer	-14142
▁Senate	-14143
▁Sierra	-14144
▁Sophie	-14145
▁Thames	-14146
▁Turkey	-14147
▁Winter	-14148
▁accord	-14149
▁admits	-14150
▁airing	-14151
▁allies	-14152
▁arrows	-14153
▁climax	-14154
▁climbs	-14155
▁closet	-14156
▁cowork	-14157
▁crimes	-14158
▁dandel	-14159
▁debris	-14160
▁deeper	-14161
▁fishes	-14162
▁graphs	-14163
▁hotels	-14164
▁jacket	-14165
▁ladder	-14166
▁makeup	-14167
▁naming	-14168
▁preval	-14169
▁prints	-14170
▁remote	-14171
▁reserv	-14172
▁rumors	-14173
▁situps	-14174
▁sophom	-14175
▁steady	-14176
▁summon	-14177
▁tackle	-14178
▁trolls	-14179
▁turtle	-14180
▁voices	-14181
▁wished	-14182
angaroos	-14183
▁Bethany	-14184
▁Bridget	-14185
▁Freeway	-14186
▁Glasgow	-14187
▁Hoysala	-14188
▁Hubbard	-14189
▁Kendall	-14190
▁Medical	-14191
▁Natalie	-14192
▁Peshkin	-14193
▁Players	-14194
▁Seymour	-14195
▁Warrior	-14196
▁Written	-14197
▁absolut	-14198
▁acquire	-14199
▁alcohol	-14200
▁amazing	-14201
▁bombers	-14202
▁carrier	-14203
▁casting	-14204
▁cleaner	-14205
▁confron	-14206
▁connect	-14207
▁crowned	-14208
▁dealers	-14209
▁delight	-14210
▁disagre	-14211
▁electro	-14212
▁ensuing	-14213
▁exhaust	-14214
▁focuses	-14215
▁grammar	-14216
▁knowing	-14217
▁knuckle	-14218
▁labeled	-14219
▁loyalty	-14220
▁lyrical	-14221
▁mirrors	-14222
▁orchard	-14223
▁patrons	-14224
▁poverty	-14225
▁solving	-14226
▁spreads	-14227
▁suspect	-14228
▁sweater	-14229
▁veteran	-14230
▁Administ	-14231
▁Americas	-14232
▁Anglesey	-14233
▁Beltline	-14234
▁Brigades	-14235
▁Campaign	-14236
▁Chandler	-14237
▁Crusader	-14238
▁Electric	-14239
▁Fletcher	-14240
▁Hereford	-14241
▁Hibiscus	-14242
▁Lycoming	-14243
▁Sleaford	-14244
▁Woodward	-14245
▁assessed	-14246
▁authored	-14247
▁barracks	-14248
▁blankets	-14249
▁builders	-14250
▁carnival	-14251
▁compiled	-14252
▁confused	-14253
▁disabled	-14254
▁disorder	-14255
▁enlarged	-14256
▁explored	-14257
▁favoured	-14258
▁founding	-14259
▁giraffes	-14260
▁humanity	-14261
▁imperial	-14262
▁indirect	-14263
▁innocent	-14264
▁involves	-14265
▁landmark	-14266
▁neutrino	-14267
▁organize	-14268
▁realised	-14269
▁reflects	-14270
▁relating	-14271
▁relevant	-14272
▁terrible	-14273
▁theaters	-14274
▁theology	-14275
▁tracking	-14276
▁universe	-14277
▁variable	-14278
ordination	-14279
▁Artillery	-14280
▁Fusiliers	-14281
▁Manhattan	-14282
▁Newcastle	-14283
▁RedOctane	-14284
▁Regiments	-14285
▁Stockwell	-14286
▁abolished	-14287
▁abundance	-14288
▁accounted	-14289
▁actresses	-14290
▁collector	-14291
▁diagnosed	-14292
▁discarded	-14293
▁everybody	-14294
▁exhibited	-14295
▁freestyle	-14296
▁hardcover	-14297
▁inflicted	-14298
▁listeners	-14299
▁maintains	-14300
▁migration	-14301
▁mythology	-14302
▁postcards	-14303
▁principle	-14304
▁prototype	-14305
▁recognize	-14306
▁regiments	-14307
▁suspected	-14308
▁teachings	-14309
▁Technology	-14310
▁Twickenham	-14311
▁acceptance	-14312
▁attraction	-14313
▁attractive	-14314
▁attributes	-14315
▁calculator	-14316
▁destroying	-14317
▁explicitly	-14318
▁homosexual	-14319
▁introduces	-14320
▁quantities	-14321
▁situations	-14322
▁substances	-14323
▁treatments	-14324
▁disappeared	-14325
▁implemented	-14326
▁interrupted	-14327
▁interviewed	-14328
▁journalists	-14329
▁legislative	-14330
▁programming	-14331
▁civilization	-14332
▁discontinued	-14333
▁imprisonment	-14334
▁instructions	-14335
▁instrumental	-14336
▁intervention	-14337
▁kindergarten	-14338
▁manufactured	-14339
▁mathematical	-14340
▁protagonists	-14341
▁subscription	-14342
▁accommodation	-14343
▁grandchildren	-14344
▁manufacturing	-14345
▁substantially	-14346
▁instrumentation	-14347
LI	-14348
hu	-14349
agg	-14350
alo	-14351
arc	-14352
enh	-14353
fam	-14354
hea	-14355
hou	-14356
ibe	-14357
imm	-14358
oco	-14359
sky	-14360
uka	-14361
upe	-14362
uru	-14363
usa	-14364
zog	-14365
▁CA	-14366
▁IR	-14367
▁Ib	-14368
▁LN	-14369
▁Nf	-14370
▁RF	-14371
agus	-14372
amos	-14373
ardi	-14374
atra	-14375
brah	-14376
cach	-14377
eing	-14378
flix	-14379
idal	-14380
idas	-14381
ipas	-14382
itha	-14383
ivic	-14384
leen	-14385
lein	-14386
lson	-14387
math	-14388
mund	-14389
nets	-14390
ogna	-14391
onne	-14392
orie	-14393
oval	-14394
plex	-14395
thia	-14396
usan	-14397
zher	-14398
▁Aqu	-14399
▁Bab	-14400
▁CAT	-14401
▁Enn	-14402
▁Isl	-14403
▁Jak	-14404
▁Kaz	-14405
▁Led	-14406
▁McA	-14407
▁Ned	-14408
▁Nir	-14409
▁Pic	-14410
▁Raw	-14411
▁Thr	-14412
▁Urn	-14413
▁Vis	-14414
▁Voy	-14415
▁WCW	-14416
▁Zap	-14417
▁aft	-14418
▁bub	-14419
▁cyt	-14420
▁dra	-14421
▁dup	-14422
▁pes	-14423
▁sap	-14424
▁ski	-14425
▁tin	-14426
Music	-14427
agram	-14428
ancer	-14429
andis	-14430
anium	-14431
apper	-14432
araoh	-14433
gered	-14434
hears	-14435
heric	-14436
hesis	-14437
iates	-14438
icked	-14439
icles	-14440
illon	-14441
imity	-14442
irate	-14443
music	-14444
oland	-14445
ouver	-14446
raine	-14447
story	-14448
style	-14449
trick	-14450
unton	-14451
▁ARIA	-14452
▁Alec	-14453
▁Bosi	-14454
▁Brom	-14455
▁Carr	-14456
▁Cort	-14457
▁Dale	-14458
▁Dare	-14459
▁Erik	-14460
▁Hold	-14461
▁Kaly	-14462
▁Madh	-14463
▁Mith	-14464
▁Mona	-14465
▁Nate	-14466
▁Nike	-14467
▁Patt	-14468
▁Plum	-14469
▁Prec	-14470
▁Ruby	-14471
▁Samp	-14472
▁Ster	-14473
▁Tang	-14474
▁Than	-14475
▁Timb	-14476
▁Trad	-14477
▁Vert	-14478
▁Want	-14479
▁blog	-14480
▁buoy	-14481
▁corp	-14482
▁epit	-14483
▁fest	-14484
▁incl	-14485
▁kern	-14486
▁libr	-14487
▁loot	-14488
▁maps	-14489
▁odes	-14490
▁pand	-14491
▁paws	-14492
▁pose	-14493
▁quiz	-14494
▁sage	-14495
▁scen	-14496
▁shov	-14497
▁skip	-14498
▁spar	-14499
▁spor	-14500
▁subt	-14501
▁tens	-14502
▁unde	-14503
acular	-14504
arding	-14505
ayette	-14506
embley	-14507
herent	-14508
ittees	-14509
itudes	-14510
levard	-14511
lishes	-14512
manuel	-14513
ortion	-14514
uctive	-14515
umbled	-14516
▁Apart	-14517
▁Carlo	-14518
▁Comet	-14519
▁Darry	-14520
▁Fried	-14521
▁Gross	-14522
▁Guang	-14523
▁Heath	-14524
▁Ibrah	-14525
▁Layla	-14526
▁Lydia	-14527
▁Marta	-14528
▁Massa	-14529
▁Milly	-14530
▁Moody	-14531
▁Novak	-14532
▁Olive	-14533
▁Ottom	-14534
▁Rough	-14535
▁Sandy	-14536
▁Sixth	-14537
▁Snake	-14538
▁Torch	-14539
▁chamb	-14540
▁cheer	-14541
▁forks	-14542
▁fried	-14543
▁grace	-14544
▁guess	-14545
▁harsh	-14546
▁inhib	-14547
▁juris	-14548
▁lakes	-14549
▁mason	-14550
▁parks	-14551
▁plums	-14552
▁poles	-14553
▁proud	-14554
▁raids	-14555
▁retal	-14556
▁sails	-14557
▁shall	-14558
▁stump	-14559
▁swall	-14560
▁tides	-14561
▁tribe	-14562
▁twins	-14563
▁widow	-14564
▁wines	-14565
aulipas	-14566
clusive	-14567
corrhiz	-14568
ificate	-14569
marcach	-14570
writing	-14571
zherzog	-14572
▁Alicia	-14573
▁Archie	-14574
▁Bailey	-14575
▁Bronze	-14576
▁Butter	-14577
▁Calder	-14578
▁Cecily	-14579
▁Colony	-14580
▁Ferris	-14581
▁Freddy	-14582
▁Gambia	-14583
▁Huguen	-14584
▁Inside	-14585
▁Joanna	-14586
▁Levine	-14587
▁Malays	-14588
▁Market	-14589
▁McDoug	-14590
▁Method	-14591
▁Morris	-14592
▁Nomura	-14593
▁Pastor	-14594
▁Poetry	-14595
▁Powers	-14596
▁Shapur	-14597
▁Stefan	-14598
▁Thirty	-14599
▁Yellow	-14600
▁acquis	-14601
▁button	-14602
▁compat	-14603
▁consec	-14604
▁delays	-14605
▁diving	-14606
▁eldest	-14607
▁entert	-14608
▁exempl	-14609
▁floods	-14610
▁hammer	-14611
▁helmet	-14612
▁infilt	-14613
▁laptop	-14614
▁lovers	-14615
▁marrow	-14616
▁merged	-14617
▁orphan	-14618
▁parked	-14619
▁raises	-14620
▁relied	-14621
▁reprin	-14622
▁revers	-14623
▁safely	-14624
▁slated	-14625
▁stress	-14626
▁suffer	-14627
▁suspic	-14628
▁unanim	-14629
▁washes	-14630
arations	-14631
enerated	-14632
iniscent	-14633
ogenetic	-14634
ointment	-14635
▁Alexand	-14636
▁Classic	-14637
▁Cynthia	-14638
▁Finland	-14639
▁Frankie	-14640
▁Grisham	-14641
▁Islamic	-14642
▁Jenkins	-14643
▁Middles	-14644
▁Netflix	-14645
▁Orsogna	-14646
▁Palmyra	-14647
▁Private	-14648
▁Reserve	-14649
▁Shelley	-14650
▁Uyghurs	-14651
▁Vermont	-14652
▁Wembley	-14653
▁Whitney	-14654
▁Wyoming	-14655
▁apprent	-14656
▁arsenal	-14657
▁barrier	-14658
▁beneath	-14659
▁biology	-14660
▁borders	-14661
▁borough	-14662
▁caravan	-14663
▁careers	-14664
▁chancel	-14665
▁confisc	-14666
▁corrupt	-14667
▁escapes	-14668
▁favored	-14669
▁formula	-14670
▁gorilla	-14671
▁gravity	-14672
▁horsesh	-14673
▁masters	-14674
▁monster	-14675
▁pitches	-14676
▁privile	-14677
▁realize	-14678
▁recruit	-14679
▁referee	-14680
▁referen	-14681
▁remixed	-14682
▁reorgan	-14683
▁revenge	-14684
▁sequins	-14685
▁sleeves	-14686
▁superst	-14687
▁theolog	-14688
▁umpires	-14689
▁variant	-14690
▁varying	-14691
ighthouse	-14692
northwest	-14693
▁Antilles	-14694
▁Attorney	-14695
▁Barbours	-14696
▁Chemical	-14697
▁Complete	-14698
▁Critical	-14699
▁Feelings	-14700
▁Harmonix	-14701
▁Proteins	-14702
▁Senators	-14703
▁absolute	-14704
▁analyzed	-14705
[...]
